memory_initialization_radix=2;
memory_initialization_vector=
110010,
010100,
110011,
010011,
010011,
010111,
010100,
011001,
010010,
110010,
010010,
010001,
110011,
110101,
110010,
010010,
110011,
111001,
110010,
010010,
010010,
110001,
110001,
010010,
010100,
110110,
010100,
110001,
000000,
010010,
010001,
010101,
010101,
110011,
010010,
110101,
110010,
010011,
010010,
110011,
010001,
010011,
110001,
010010,
110011,
110010,
010100,
010010,
110101,
010100,
110011,
110100,
110011,
010101,
010011,
110011,
110100,
010100,
010011,
010001,
010011,
010100,
110011,
010011,
011000,
010110,
110011,
000000,
010011,
110010,
110010,
110011,
010010,
011101,
010010,
110010,
110110,
110100,
110101,
010101,
110100,
010111,
110010,
010001,
010011,
010011,
110001,
110101,
010011,
110100,
010001,
010100,
110010,
110001,
010010,
110101,
110100,
110011,
110110,
011010;
