memory_initialization_radix=2;
memory_initialization_vector=
11111111111110110110,
11111111111111011001,
11111111111111011101,
11111111111111100101,
11111111111111010001,
11111111111111010000,
11111111111111000110,
11111111111111010001,
11111111111110100111,
11111111111111101110,
11111111111111011110,
11111111111111100110,
11111111111111111000,
11111111111111011100,
11111111111110111110,
00000000000001011110,
11111111111111010110,
00000000000010011110,
11111111111111011101,
11111111111111110010,
11111111111111011111,
11111111111111000100,
11111111111110111101,
11111111110110101111,
00000000000000001111,
00000000000001110100,
11111111111010111010,
11111111111111010001,
11111111111111000001,
11111111111111011100,
11111111111111000111,
00000000000100111001,
11111111111101000000,
11111111111110111110,
00000000000100111110,
00000000000101000100,
11111111111110011100,
11111111111111010000,
00000000001100110110,
11111111111111100010,
11111111111111100111,
11111111111111000101,
11111111111110110100,
00000000000100110110,
11111111111111000111,
00000000000000001100,
00000000000000101001,
11111111111111000101,
11111111111110010100,
11111111111111000100,
11111111111111100101,
11111111111111010001,
11111111111111111001,
11111111111101000011,
11111111111110010011,
00000000000101011111,
11111111111111101100,
11111111111011000000,
11111111111111000110,
11111111111111110100,
11111111111111001111,
11111111111111101100,
11111111111110110001,
11111111111101110010,
11111111110101001100,
00000000000101100011,
11111111111111100101,
11111111101110011100,
11111111111111011010,
11111111111111101001,
11111111111111010110,
11111111111111000000,
11111111111111101101,
11111111111111001111,
11111111111110001010,
00000000000010001101,
11111111110110001001,
11111111111111110111,
11111111111111011100,
11111111111111110010,
11111111111111001010,
11111111111111000001,
11111111111111011001,
00000000000010000010,
00000000000011000110,
11111111111110101001,
11111111111111010110,
11111111111111100101,
11111111111110111011,
11111111111111011010,
00000000000000000001,
11111111111111111010,
11111111111111110000,
11111111111111111110,
11111111111111101000,
11111111111111111101,
00000000000000111110,
11111111111111111110,
00000000000000001000,
11111111111111011011;
