memory_initialization_radix=2;
memory_initialization_vector=
100000,
100000,
110001,
100001,
000000,
010010,
110001,
100000,
100001,
000001,
100001,
100001,
110001,
100001,
110001,
100001,
110001,
010101,
000000,
100001,
100001,
100000,
100000,
100001,
100001,
110010,
000001,
100000,
000001,
100000,
100001,
010001,
110010,
000000,
100001,
110100,
000001,
000000,
000000,
110010,
100001,
010001,
100000,
100001,
100000,
100000,
100001,
100001,
110100,
100001,
110010,
010001,
100000,
010001,
100001,
100000,
000001,
110001,
100000,
100001,
000000,
000000,
100000,
110001,
000000,
010011,
000000,
000001,
100000,
000000,
100000,
110001,
100001,
011010,
000000,
100001,
110010,
110001,
100000,
010001,
000001,
000000,
110001,
000001,
100000,
100000,
000001,
100000,
100001,
110011,
000000,
100001,
100000,
100000,
010001,
110100,
110010,
110010,
010011,
110110;
