memory_initialization_radix=2;
memory_initialization_vector=
110100,
010101,
010011,
110110,
110100,
010011,
010011,
110011,
110100,
110010,
011000,
110011,
010101,
010011,
111001,
110011,
110101,
010001,
110011,
010011,
110100,
110011,
010100,
110001,
110010,
110001,
110001,
110100,
010110,
010011,
110100,
110010,
010100,
010101,
010010,
010001,
010010,
010011,
100000,
110011,
110011,
110010,
110001,
110100,
010011,
110011,
110010,
110101,
010011,
110110,
110100,
110011,
110001,
010010,
010011,
110001,
010011,
110101,
110010,
110100,
010011,
110011,
010010,
010010,
110001,
010011,
110010,
110001,
110011,
010100,
110100,
110100,
110011,
110110,
000011,
000001,
110010,
110101,
010100,
110011,
110101,
110100,
010011,
110011,
110010,
110001,
110010,
110100,
110011,
010100,
010100,
010110,
110011,
110101,
110100,
010011,
010011,
010100,
010100,
010100,
110100,
110100,
110010,
110011,
110011,
110010,
110011,
110100,
110010,
010011,
110011,
010110,
010011,
010011,
010101,
010011,
010101,
010011,
010011,
110010,
110011,
010011,
110100,
010010,
010001,
010010,
110010,
010011,
110010,
110011,
110101,
100000,
110010,
110011,
010100,
110010,
110010,
010011,
100001,
010101,
110011,
110011,
110001,
110010,
110010,
010011,
110001,
010011,
100000,
110100,
011000,
010101,
110001,
110011,
110001,
010001,
110101,
110110,
110100,
010100,
110011,
010110,
000000,
010001,
110101,
110011,
110011,
110100,
110011,
110101,
110011,
110011,
110101,
010011,
100001,
110010,
110010,
010100,
010100,
110100,
010011,
010101,
110011,
110011,
110100,
100000,
010011,
110101,
110010,
110100,
010010,
110011,
110100,
010011,
110010,
010101,
100001,
010100,
110011,
010011,
110100,
110010,
011010,
110011,
010011,
110011,
010100,
110110,
110100,
010110,
110011,
010011,
110100,
110110,
110011,
010111,
110010,
010011,
010011,
110010,
010011,
110100,
010111,
110010,
110001,
110010,
010011,
110011,
110011,
010100,
011001,
110001,
110011,
110100,
010010,
110111,
010101,
110100,
010001,
110011,
010100,
110010,
010111,
110011,
000000,
010011,
110100,
010010,
010101,
010100,
110011,
010100,
010110,
010011,
110101,
010011,
110011,
110011,
110100,
010011,
010110,
110100,
010100,
010101,
010010,
100000,
010100,
110001,
110110,
010011,
110100,
010101,
110011,
010011,
110001,
100000,
110010,
010100,
010011,
010101,
010011,
010011,
010100,
010001,
010011,
110001,
010011,
110011,
010100,
010100,
110011,
110011,
110111,
110011,
010010,
110011,
110001,
110111,
010110,
110011,
110011,
110100,
010011,
110110,
110100,
110011,
110010,
010011,
110101,
010111,
010011,
010011,
110011,
110100,
110100,
110110,
110011,
110101,
010110,
110100,
110101,
010100,
110011,
110011,
010001,
110010,
000000,
010011,
110101,
110011,
110011,
010101,
110001,
110001,
010100,
110010,
010001,
010101,
010100,
010011,
110011,
110100,
110001,
010011,
010001,
110010,
000000,
110011,
110010,
010011,
110100,
110011,
110011,
010100,
000000,
110011,
010011,
010001,
010100,
110011,
110100,
010011,
010110,
110010,
000000,
000001,
110101,
010010,
110011,
010011,
010011,
110110,
011001,
110011,
000000,
110001,
110101,
110011,
110011,
010100,
110110,
110100,
110011,
000001,
010001,
010001,
010011,
010011,
110011,
110100,
110011,
110010,
110010,
110110,
110011,
010100,
110010,
110011,
011000,
010011,
010100,
010110,
010100,
110100,
010011,
110010,
110011,
110011,
110010,
010100,
010011,
010100,
110101,
110010,
110011,
010101,
110100,
110011,
110011,
010101,
110010,
110011,
010110,
000000,
010011,
110001,
110001,
010011,
010110,
011000,
010011,
100001,
110011,
110010,
100000,
110010,
110010,
010011,
110011,
110011,
010101,
110010,
110011,
000001,
100000,
110001,
110001,
110010,
010101,
111000,
010011,
110011,
110001,
010101,
010010,
010001,
110101,
000001,
010011,
010110,
110010,
110110,
110001,
000000,
100000,
010100,
010100,
000000,
110101,
110010,
110010,
010101,
110011,
110100,
000001,
100001,
110001,
010010,
110101,
110100,
010011,
110011,
110011,
010001,
110010,
110001,
110011,
110011,
010011,
110101,
010101,
110100,
010110,
010011,
110100,
110011,
110001,
010101,
110011,
010011,
110010,
110110,
010011,
110010,
010011,
010100,
110010,
110010,
010011,
110011,
110011,
110010,
110101,
010100,
110010,
110011,
010110,
110010,
010100,
110011,
110010,
110010,
110100,
110100,
110010,
110010,
000000,
010011,
010100,
110010,
010100,
110010,
010100,
110010,
010010,
110100,
010001,
110011,
010011,
110011,
111100,
110110,
010100,
110001,
110011,
010001,
110110,
110101,
010011,
010101,
111000,
110011,
010010,
110010,
110100,
010010,
010011,
110001,
010011,
010101,
110100,
110110,
000000,
010011,
010010,
010010,
110100,
110010,
110100,
110100,
010011,
010011,
010011,
110011,
010010,
010100,
010100,
110101,
110011,
110100,
110011,
010100,
110011,
010001,
111011,
110011,
110110,
010101,
010011,
110100,
110101,
110011,
110011,
010011,
110011,
010011,
110010,
110011,
110011,
110011,
010101,
110110,
010100,
110110,
110100,
010011,
010100,
010011,
110100,
010100,
110010,
110011,
010011,
110100,
010100,
010011,
110101,
010010,
110100,
010101,
111000,
011000,
010100,
110010,
110101,
010010,
010101,
010011,
010100,
110011,
110010,
110011,
110010,
010011,
110100,
110101,
110011,
110011,
100010,
010011,
110100,
010100,
100010,
010100,
010001,
110101,
010110,
010011,
110110,
110011,
110010,
110010,
100010,
010011,
110100,
010100,
010101,
010001,
010100,
110110,
010100,
010011,
110001,
010100,
010110,
110100,
110011,
110011,
110011,
110100,
010100,
010011,
110100,
110011,
000000,
010101,
100000,
110101,
110100,
010011,
110101,
110011,
010011,
010010,
110101,
010001,
110100,
110100,
110011,
010101,
110011,
110101,
110100,
010100,
110100,
110100,
010110,
110110,
010100,
110010,
010100,
010011,
010100,
110011,
010011,
010111,
010011,
010100,
110100,
110011,
010111,
110011,
010010,
110010,
110100,
110100,
010011,
110010,
110011,
110011,
110010,
110011,
110011,
010011,
110011,
110001,
110001,
010011,
010100,
010011,
010101,
100001,
010100,
010100,
010011,
010001,
010100,
010110,
110001,
110010,
110100,
010011,
110101,
010011,
010001,
010010,
010010,
110100,
110110,
110100,
110100,
110111,
110010,
010001,
010001,
110010,
010011,
110011,
110100,
110011,
110010,
010100,
010101,
010100,
110001,
110010,
010011,
100000,
110011,
110011,
111010,
110100,
110011,
110011,
100000,
110101,
110001,
010011,
110011,
010011,
010110,
110011,
110010,
010111,
110011,
010011,
110110,
010011,
110010,
110100,
010011,
010011,
110101,
110011,
110111,
110100,
110010,
011010,
010111,
110011,
110011,
010011,
010011,
110011,
110011,
110011,
110100,
010011,
110011,
011000,
010011,
110101,
110011,
110011,
010100,
110010,
110100,
010011,
010101,
010100,
010100,
010101,
010011,
011000,
110010,
110100,
000000,
110101,
010011,
110100,
110110,
110011,
010010,
010001,
110011,
100000,
010011,
010011,
110011,
010011,
110011,
110011,
010010,
010100,
110001,
110010,
000000,
110101,
110101,
111010,
010101,
010011,
010001,
010010,
110001,
010100,
110011,
010011,
010011,
010100,
010011,
110010,
110001,
010011,
010011,
110010,
010101,
010001,
110010,
110011,
110100,
110010,
110100,
110100,
010001,
110001,
010001,
110011,
010110,
110100,
010011,
110011,
010100,
010011,
010010,
110001,
010011,
110101,
110011,
010100,
110011,
110101,
010100,
110010,
010100,
110011,
110100,
011000,
110011,
110011,
110101,
110110,
110011,
010100,
110111,
010100,
110010,
110011,
110011,
010100,
110100,
110100,
010100,
010111,
110011,
010011,
110100,
110001,
010101,
110100,
010011,
010101,
110011,
110011,
110010,
010011,
110100,
110011,
010101,
011001,
110010,
110100,
110011,
000000,
000001,
010011,
010010,
010011,
010100,
110011,
110011,
110011,
110100,
000000,
110001,
110010,
010001,
110011,
110111,
110011,
110101,
110011,
010001,
100000,
010011,
110001,
010011,
010001,
110100,
010011,
110100,
010011,
110001,
110010,
010010,
010010,
010100,
010001,
110101,
010100,
010101,
110011,
110011,
110011,
110011,
110010,
010100,
010001,
110110,
110101,
110011,
010011,
010011,
010001,
010110,
010011,
110100,
110011,
010101,
110010,
010101,
011000,
110110,
010011,
110010,
110011,
110100,
110010,
010011,
110011,
110010,
010100,
010100,
110011,
110111,
110010,
110011,
110101,
110111,
110010,
010100,
110010,
010011,
110100,
110100,
010110,
010011,
010011,
110011,
110010,
010011,
110101,
110011,
110010,
110011,
100000,
110001,
110100,
110101,
010011,
010011,
110001,
110010,
110010,
110011,
111010,
010001,
010011,
110011,
010100,
110101,
110010,
110010,
110011,
100000,
010010,
110001,
110110,
110100,
110110,
010100,
110011,
100001,
010010,
010001,
000001,
010011,
010010,
110100,
110010,
110110,
010110,
110001,
110101,
110001,
010100,
010100,
110011,
110010,
010100,
110110,
010111,
110011,
110010,
000010,
110010,
100000,
110101,
010011,
110011,
111010,
110011,
010110,
100000,
110010,
010100,
010011,
110010,
010011,
110010,
110100,
010100,
110010,
010011,
010100,
110010,
110011,
110011,
011011,
110010,
010011,
110101,
110010,
010011,
110100,
010011,
110011,
110011,
010110,
010100,
110010,
110100,
110100,
110101,
110011,
010011,
010110,
010011,
110100,
010100,
110101,
110110,
110011,
010010,
010100,
110001,
010010,
110100,
010011,
110111,
110011,
100001,
100000,
110001,
110010,
110001,
110010,
110011,
100001,
010100,
010101,
110100,
110001,
110011,
110010,
010010,
110001,
010100,
110110,
110010,
110011,
110101,
000000,
110011,
110001,
000000,
110011,
010001,
010100,
010011,
010011,
010011,
010001,
010001,
110011,
110001,
110010,
110011,
010011,
010100,
110101,
010101,
010011,
110011,
000011,
110010,
110011,
010110,
110100,
110011,
011001,
110101,
011011,
010001,
110001,
100000,
110011,
110110,
110101,
110101,
010011,
010011,
110010,
110100,
010100,
110011,
110101,
110011,
110010,
110011,
010100,
010011,
110011,
110100,
110101,
010110,
010011,
111010,
010100,
110100,
110011,
110110,
010100,
010011,
110011,
110100,
110110,
110011,
110011,
110011,
010100,
010011,
010100,
110001,
110010,
110010,
110010,
010100,
110011,
110011,
010011,
010011,
010010,
010110,
010001,
010001,
010011,
010011,
010001,
010011,
110011,
010110,
010111,
010010,
000000,
110010,
010011,
110100,
010011,
110100,
011001,
110011,
110010,
010001,
110010,
110011,
110101,
010110,
110011,
110011,
010100,
010100,
110110,
010011,
110101,
100000,
110011,
100000,
110101,
110101,
010111,
110011,
110011,
010101,
000001,
000001,
110010,
110011,
010011,
110011,
010011,
010100,
010011,
010011,
110011,
100000,
110100,
010100,
110010,
110011,
110010,
110011,
110010,
110100,
111000,
110100,
110011,
110010,
010100,
010111,
010011,
010011,
010101,
110011,
110011,
010111,
110010,
110101,
011000,
010011,
110011,
110010,
010011,
110100,
011000,
110100,
110011,
100000,
010011,
010100,
110011,
010101,
110101,
010011,
100000,
110001,
110001,
010100,
110011,
110010,
110110,
110100,
010011,
010110,
110011,
000000,
110010,
110101,
110011,
010011,
110011,
011000,
010010,
010010,
010010,
110100,
000000,
010011,
010011,
110010,
010011,
110011,
110100,
110100,
100001,
010001,
010011,
110010,
010011,
110011,
110100,
010111,
010100,
010010,
110001,
110010,
110010,
010101,
010011,
011000,
110011,
010011,
010100,
010101,
110001,
010010,
010001,
110011,
010011,
010011,
110011,
110100,
010100,
110001,
110010,
100001,
010011,
110010,
110101,
010011,
110011,
010011,
010011,
010011,
011001,
010100,
110010,
110011,
010100,
110011,
010101,
110011,
010100,
010011,
110011,
110100,
010110,
110010,
110011,
110010,
110100,
010100,
011000,
110101,
010110,
010010,
010100,
110011,
110011,
110100,
010100,
110011,
110101,
010001,
010011,
010001,
010011,
110010,
110011,
110100,
110011,
100001,
010001,
010001,
110010,
110001,
110011,
010110,
100010,
010011,
010111,
010110,
010011,
010010,
110100,
110110,
100000,
110011,
010011,
110010,
110011,
110010,
100000,
110010,
110010,
010011,
010011,
010001,
110110,
010100,
010101,
110011,
000000,
010001,
010010,
010011,
010011,
110100,
111000,
010011,
110011,
010011,
110011,
110011,
010001,
110110,
110011,
010010,
010101,
110011,
010011,
110101,
110011,
110011,
010010,
100001,
110101,
010101,
010011,
010011,
010100,
110010,
010100,
110010,
010011,
010100,
100001,
110011,
010011,
110010,
111000,
110010,
110110,
010011,
110011,
110101,
110011,
110010,
110100,
110010,
110011,
010011,
010011,
110100,
110011,
010010,
110011,
010010,
110110,
010100,
110010,
110010,
010011,
110001,
110011,
000000,
110001,
010011,
110110,
110100,
110010,
110011,
110010,
110010,
010011,
010001,
010011,
010110,
110100,
010011,
010011,
110011,
110001,
110011,
000000,
010110,
000000,
110011,
110001,
110011,
110011,
110011,
110001,
110010,
110100,
100000,
010100,
010001,
110010,
010100,
110100,
010011,
010001,
010011,
000000,
010010,
010011,
010001,
010011,
010011,
110100,
110011,
110011,
010011,
110001,
110011,
000000,
110101,
110101,
010011,
110010,
110010,
110011,
000000,
010011,
010101,
011010,
110010,
010011,
110101,
110011,
110100,
110100,
110110,
010100,
110100,
010100,
110011,
010100,
010011,
110010,
010100,
110101,
010100,
110010,
110110,
110100,
110011,
010110,
110011,
110011,
110101,
010101,
110100,
110100,
110101,
010100,
100000,
110011,
010100,
110011,
110010,
010101,
010001,
000000,
000000,
110001,
110010,
110010,
110100,
110110,
100000,
010010,
010010,
010010,
100000,
010001,
110100,
110001,
110100,
110101,
010011,
010001,
010001,
110001,
110011,
110010,
010110,
100000,
010101,
110011,
110011,
100000,
110011,
110011,
010010,
110010,
110011,
110011,
110010,
010011,
010100,
110010,
110110,
110100,
010001,
110010,
110001,
010100,
010011,
110011,
110011,
010011,
010100,
000000,
010001,
010010,
010011,
010011,
110101,
010111,
110100,
010101,
011001,
010001,
010011,
010100,
110111,
010011,
110101,
010100,
010011,
110011,
010100,
110100,
110010,
110010,
010011,
010011,
010011,
110110,
110100,
110101,
110100,
110011,
110011,
110110,
110011,
110101,
110010,
010011,
010011,
010101,
110011,
010100,
110011,
110010,
010100,
110011,
110101,
010101,
110100,
111000,
100000,
010100,
010100,
000000,
110010,
110011,
110010,
010101,
110001,
100000,
110001,
110001,
110011,
010001,
110101,
110011,
010110,
110011,
010100,
100001,
110100,
110001,
010011,
010001,
110100,
110011,
010011,
110100,
010100,
110001,
100001,
010010,
010001,
010100,
100010,
010100,
110100,
110101,
110011,
000000,
010001,
010001,
010011,
010100,
010001,
010100,
110011,
010101,
010011,
010011,
110010,
000001,
100000,
010001,
110010,
010100,
110101,
010011,
110010,
110110,
000001,
010010,
100010,
110100,
010011,
110011,
110011,
110110,
110010,
110100,
110100,
010101,
010011,
010001,
110100,
110011,
110110,
110011,
110100,
110011,
110111,
010011,
110100,
110100,
110010,
011000,
110010,
011000,
110011,
110011,
010101,
010011,
110010,
010100,
110010,
011001,
110101,
110011,
110011,
110010,
010100,
000000,
110101,
000000,
110011,
110011,
010110,
110011,
110010,
010100,
010011,
110010,
110001,
000000,
110110,
010011,
110011,
110101,
010100,
110011,
110100,
110001,
110001,
010100,
010011,
110010,
010100,
110110,
110100,
010010,
110010,
111001,
010010,
110011,
100000,
110011,
110010,
010111,
010101,
010010,
010010,
010010,
000000,
110011,
110001,
110101,
110010,
110011,
010011,
110100,
110010,
010001,
010001,
110010,
010110,
110010,
111000,
110010,
010101,
010101,
010011,
111000,
010011,
010100,
110101,
010101,
010101,
111001,
010100,
110101,
110101,
110010,
110011,
010011,
110100,
010100,
010101,
010011,
010101,
110011,
010011,
110101,
010011,
110100,
010111,
110010,
110011,
010011,
110011,
110100,
110010,
010011,
010010,
110011,
110010,
110011,
010100,
110011,
110011,
010011,
110100,
000000,
000001,
010010,
110011,
110100,
010100,
110011,
100000,
110100,
110011,
010110,
010100,
110010,
010100,
100001,
110101,
010011,
110011,
010011,
010011,
010010,
010001,
110001,
110011,
100000,
010101,
110110,
110100,
100000,
110100,
110001,
100001,
010110,
110101,
110100,
110101,
010100,
110011,
010010,
110100,
110001,
100000,
110011,
010100,
110101,
110011,
010101,
110011,
010110,
010101,
000000,
000000,
010001,
110101,
010110,
010011,
110011,
010100,
110011,
110100,
010011,
000000,
110011,
010100,
010011,
010101,
010100,
010011,
010011,
110101,
110011,
111000,
010110,
011010,
010101,
010100,
110111,
110101,
010011,
010101,
010100,
010011,
010110,
010011,
110011,
110100,
010100,
110011,
110010,
110100,
110011,
010010,
010100,
011010,
010100,
010100,
110100,
110011,
110011,
010001,
010001,
110010,
100001,
010100,
110100,
010101,
111000,
110011,
011000,
010100,
110010,
000000,
100000,
010011,
100000,
010011,
010011,
110101,
010001,
010010,
010010,
010010,
000011,
010110,
010011,
010011,
110011,
010100,
010001,
110001,
110010,
010010,
110011,
110011,
010011,
110011,
110100,
010011,
010101,
110001,
110010,
110011,
110010,
000000,
110011,
110011,
010011,
110011,
110101,
010011,
110001,
010011,
010010,
110100,
010011,
110010,
110101,
110100,
010011,
100000,
110010,
010011,
010011,
010100,
110101,
010110,
110010,
110011,
110100,
010011,
110011,
110100,
110101,
110010,
110101,
010101,
110010,
111000,
110011,
110100,
110011,
010011,
010011,
010110,
110100,
010011,
010101,
110011,
110110,
110100,
011001,
010011,
010011,
010011,
110011,
110100,
010100,
110011,
010100,
010100,
110110,
010001,
010011,
110100,
010011,
010100,
010101,
110100,
010001,
110100,
110010,
110010,
110101,
011001,
110001,
110011,
110100,
110100,
010010,
110010,
100000,
110010,
010010,
010110,
010111,
010011,
110011,
010011,
010010,
110010,
000000,
010001,
110011,
010010,
010101,
010011,
110011,
110010,
110010,
010101,
010110,
010001,
010110,
000000,
110010,
110011,
010011,
010011,
111001,
110011,
100010,
110001,
000000,
110100,
110100,
110100,
010101,
110011,
010100,
110010,
110100,
110001,
110011,
111000,
010110,
010011,
110011,
010011,
110010,
110100,
010011,
110010,
110011,
011001,
010100,
010011,
010011,
110011,
010011,
110100,
110011,
110011,
110011,
110010,
010110,
010110,
010011,
110011,
010101,
010011,
110011,
010011,
110010,
010011,
011001,
110010,
110111,
110110,
010100,
010001,
000000,
110011,
100000,
110100,
110100,
110011,
010101,
010011,
110100,
010001,
100000,
010001,
110001,
110011,
100010,
010011,
010101,
010100,
010001,
010010,
110011,
010001,
000000,
110010,
010011,
110100,
010100,
010100,
010010,
110010,
110010,
010001,
010011,
110100,
110101,
010100,
010011,
010101,
110001,
110010,
110010,
010010,
110100,
000000,
010011,
110011,
010101,
110101,
010100,
110011,
100000,
000000,
010001,
010011,
110010,
010100,
010011,
010100,
110010,
110001,
010100,
010011,
110011,
110011,
010100,
010011,
010101,
110011,
010101,
110100,
010101,
010011,
110011,
110010,
110011,
110100,
010011,
110100,
010110,
010011,
010010,
010100,
110111,
110010,
110100,
110100,
110010,
110011,
110011,
110100,
010100,
110010,
110011,
110110,
010011,
010100,
111010,
010011,
110010,
010100,
010010,
010010,
000000,
110011,
010100,
110011,
110011,
010011,
110101,
110001,
110011,
110010,
010001,
010011,
010011,
110100,
010101,
111000,
110010,
010010,
000000,
110001,
000000,
110010,
110001,
010101,
110011,
010100,
110010,
110011,
000000,
110001,
010110,
010010,
010110,
110011,
110100,
110011,
010010,
010011,
010001,
000000,
010011,
010001,
110011,
110100,
110010,
110011,
110011,
010110,
010010,
100000,
000000,
110101,
010011,
110110,
110011,
110011,
110011,
000000,
010100,
110001,
010100,
110011,
110010,
110100,
110101,
110011,
010011,
010011,
110110,
110100,
010100,
110011,
010101,
110101,
110011,
110101,
110011,
110100,
010111,
110011,
110101,
110010,
010100,
010100,
110010,
110011,
010100,
110011,
010101,
110001,
111001,
110011,
110101,
110110,
010100,
010011,
110010,
110010,
110001,
100000,
100001,
110011,
110011,
110011,
110011,
010110,
000001,
010001,
010001,
010001,
110100,
110010,
010011,
110011,
010100,
110100,
010001,
010001,
110001,
110001,
110001,
110010,
110011,
110011,
110011,
110011,
100001,
010010,
010011,
000000,
110100,
010100,
010100,
110100,
110011,
010100,
110010,
010010,
000000,
010010,
010100,
010101,
010011,
110011,
110011,
010100,
110100,
110011,
000000,
010001,
100000,
010011,
110011,
011001,
110010,
110011,
110011,
100001,
110011,
010001,
110100,
010101,
010100,
110011,
110011,
010011,
010100,
110110,
110011,
110100,
010011,
110011,
010101,
010100,
110010,
010011,
110100,
111010,
110010,
010011,
010100,
010011,
110110,
010101,
010011,
010101,
110011,
110111,
110011,
110011,
010100,
110100,
010011,
110011,
010011,
010011,
010100,
010011,
010011,
010001,
110001,
110110,
110010,
010011,
111100,
010110,
010101,
110001,
100000,
010010,
110010,
010011,
100010,
110010,
010011,
010110,
010010,
110001,
110001,
010011,
000001,
010011,
010010,
010100,
110101,
110011,
110010,
110001,
010010,
110011,
010100,
110011,
010100,
010011,
010100,
110100,
010001,
100000,
100000,
010011,
110100,
110001,
110100,
010100,
110011,
110010,
010011,
110011,
000000,
110010,
000000,
010011,
110010,
011000,
110010,
010101,
110110,
110001,
010011,
010001,
110110,
011000,
110010,
110011,
010011,
110100,
010010,
110011,
110011,
111000,
010100,
010100,
110100,
110010,
111000,
110011,
110010,
010100,
110101,
111000,
110100,
010100,
110010,
010100,
010011,
110111,
110011,
110011,
110101,
110010,
110100,
110001,
010100,
010101,
110111,
010100,
010111,
110100,
010010,
110100,
110001,
110100,
110100,
110010,
010101,
110010,
110010,
110010,
110100,
110011,
010100,
110010,
010010,
011000,
110100,
010100,
110011,
010011,
100000,
110100,
010100,
110010,
110010,
110010,
010101,
110100,
010010,
010010,
010001,
010001,
110011,
110110,
110011,
110011,
011000,
110011,
011000,
010110,
010100,
010001,
010110,
110101,
110011,
010100,
110011,
011000,
010100,
010101,
110011,
010011,
010011,
100000,
111100,
110100,
110101,
110100,
110011,
100000,
110010,
110100,
110011,
110101,
010110,
110101,
110010,
010111,
010100,
110011,
110010,
110101,
110011,
011001,
110100,
010100,
110111,
110110,
110011,
010101,
110011,
110010,
110100,
010100,
110100,
010011,
010011,
010100,
110011,
110011,
110011,
110010,
010100,
010100,
010011,
110011,
010100,
010100,
010100,
110100,
010100,
010100,
010001,
010100,
010100,
010100,
010011,
110011,
010010,
010001,
110011,
100000,
010010,
010111,
010001,
011000,
111000,
110010,
110011,
110001,
110001,
110001,
110100,
110100,
110101,
110011,
010011,
010110,
110011,
010111,
000000,
110010,
110100,
010010,
110011,
110010,
110010,
010101,
110010,
010011,
010010,
110100,
110011,
010001,
010011,
010100,
010011,
010100,
010101,
110011,
100010,
110001,
010001,
010100,
110011,
010100,
110011,
110100,
111001,
110010,
110010,
110001,
010101,
010011,
110011,
010111,
110101,
110011,
110100,
110100,
110011,
011000,
010011,
010110,
010110,
010011,
010101,
010101,
110100,
110010,
110011,
110100,
010100,
110011,
010100,
110100,
110011,
110011,
110100,
010110,
010100,
010011,
110111,
110010,
110011,
110101,
110011,
110100,
110011,
110010,
010010,
000000,
110011,
010100,
011000,
110011,
010101,
110100,
010001,
110111,
000010,
000000,
110001,
110100,
110011,
110110,
010011,
110010,
010011,
110001,
010001,
010001,
110100,
110011,
110010,
111000,
110101,
110011,
110001,
110010,
100000,
010101,
110110,
000001,
010101,
110010,
010101,
110011,
000000,
010001,
100000,
100000,
110011,
010001,
110011,
110010,
110011,
110011,
110010,
010110,
110011,
000000,
000000,
110011,
010011,
110011,
010101,
110010,
110010,
110011,
010010,
010011,
010011,
010011,
110010,
110011,
010101,
110100,
110101,
110011,
010011,
010011,
010010,
110011,
110011,
110011,
110011,
010011,
110011,
110011,
010100,
110011,
110011,
110100,
010101,
110100,
010110,
110011,
010011,
110010,
110010,
110010,
010100,
110001,
110101,
110011,
110011,
110011,
110010,
010001,
010001,
010001,
110010,
110100,
010111,
010100,
110110,
110001,
110011,
110001,
010011,
110001,
110001,
110010,
110011,
010011,
010100,
110011,
110001,
010011,
110001,
010101,
010010,
110011,
110010,
110011,
110010,
110110,
110001,
010010,
010001,
110010,
110100,
110010,
010011,
110011,
110011,
110010,
110010,
110010,
110011,
000000,
010101,
110001,
010011,
110011,
010101,
110100,
110011,
110010,
010010,
000000,
110001,
010100,
110011,
110011,
010100,
110011,
110101,
110010,
010100,
000001,
010011,
010100,
110100,
110010,
110101,
110011,
110011,
110010,
110011,
110011,
100001,
110100,
110011,
110010,
010011,
110101,
010011,
010110,
010101,
010011,
110110,
111010,
010101,
010100,
110011,
010011,
110011,
010011,
110011,
010001,
010101,
010100,
110011,
010100,
010100,
110010,
110100,
100000,
110011,
110001,
110101,
110011,
110011,
110010,
110011,
110001,
100001,
110010,
010011,
010110,
110001,
110100,
010110,
110010,
010011,
010100,
110100,
110001,
010001,
010001,
100000,
010011,
010100,
010111,
010011,
010100,
010110,
000000,
110001,
100000,
110100,
010100,
110011,
010011,
110100,
110011,
110001,
110001,
100001,
110001,
010100,
000000,
010101,
010011,
010011,
110011,
110011,
110100,
000011,
110011,
010001,
110001,
110011,
110100,
011000,
010100,
010011,
110001,
110011,
010001,
010011,
110010,
110100,
110011,
010011,
110100,
010011,
110011,
010011,
010011,
110011,
010011,
111010,
110101,
110010,
010100,
110100,
110010,
010011,
010011,
010111,
010011,
010110,
010011,
110011,
110110,
110111,
110110,
010111,
110010,
110011,
010010,
010101,
010101,
011011,
010011,
110011,
010010,
110001,
110001,
110001,
010011,
110100,
110011,
010011,
010010,
110001,
010011,
010001,
000000,
100000,
110011,
000000,
110100,
110100,
110100,
010001,
010010,
010001,
010010,
110101,
110010,
100000,
110010,
010100,
010100,
010010,
100000,
110100,
010100,
110100,
110010,
010110,
010110,
110011,
110011,
100000,
100000,
110100,
110101,
010011,
110010,
010110,
010100,
010101,
110010,
110010,
010100,
110110,
110010,
110001,
100000,
110100,
110100,
110010,
110011,
110101,
010010,
010010,
110010,
010101,
110011,
110100,
110010,
110011,
010100,
110011,
110101,
110100,
110101,
111000,
010011,
110100,
110011,
110100,
110010,
110011,
110110,
010101,
010011,
010100,
110010,
010101,
110101,
010100,
110100,
010100,
010101,
010011,
110100,
110111,
110110,
110010,
010011,
110011,
010011,
110101,
010010,
110101,
011000,
010001,
010100,
110100,
110110,
110011,
110001,
110101,
011000,
010010,
110110,
010011,
110010,
010010,
110011,
110100,
010100,
010010,
010011,
010001,
010001,
010011,
010100,
010011,
110011,
110100,
010011,
010010,
010011,
110011,
010011,
110011,
110010,
010011,
010100,
110100,
010011,
010011,
010010,
010001,
010100,
111000,
110100,
010011,
010100,
110011,
110011,
010011,
010100,
010011,
100000,
110010,
010100,
010100,
110011,
110110,
110010,
110100,
010001,
010110,
110110,
010100,
110010,
010100,
110011,
110100,
110011,
110011,
010101,
110011,
110010,
110010,
010011,
010100,
010100,
010100,
110010,
010011,
110101,
010101,
110011,
010101,
010101,
110101,
010100,
010100,
110111,
110010,
110100,
110011,
110001,
110010,
010101,
010011,
010111,
110011,
110100,
110101,
110001,
110010,
010010,
010001,
010011,
110100,
110111,
010011,
010001,
010001,
110001,
100000,
010001,
010010,
110101,
100011,
010101,
110101,
110010,
010100,
100000,
010010,
110010,
000000,
010100,
110100,
010100,
110100,
010101,
100000,
010010,
110110,
110001,
110011,
100000,
111001,
010100,
110010,
110100,
110011,
010111,
010100,
010101,
110010,
100000,
110011,
110010,
110101,
110011,
110100,
010100,
010011,
110011,
010100,
110001,
110101,
110101,
110011,
110100,
110011,
110100,
110100,
000000,
110101,
110010,
010110,
010100,
110100,
010100,
110110,
110011,
110101,
110100,
010010,
010100,
110011,
110100,
010101,
010101,
110011,
110100,
110011,
110011,
010011,
010101,
010011,
010101,
110011,
110011,
110011,
110011,
010100,
110100,
110010,
110011,
110011,
110011,
010110,
110011,
110011,
110100,
110010,
110101,
010010,
010100,
110011,
110011,
110010,
110010,
010010,
010100,
110011,
100000,
010101,
110101,
110001,
110011,
110101,
010100,
010010,
110010,
110010,
110101,
000000,
110010,
010011,
110101,
010011,
110011,
010010,
110101,
100000,
000000,
110100,
110010,
110011,
110010,
010100,
110100,
110010,
110100,
010100,
110010,
010100,
010001,
110011,
010101,
110011,
110011,
010100,
010101,
010110,
110101,
010001,
010010,
110100,
110011,
010110,
010101,
110101,
010010,
010010,
100000,
110100,
010100,
110111,
110100,
010100,
110101,
010011,
010011,
110100,
110011,
010011,
110011,
110010,
010011,
010011,
010100,
110100,
010011,
110010,
010100,
110110,
110100,
011010,
110010,
110011,
010101,
110100,
110101,
110011,
110110,
110100,
110011,
010101,
010100,
011001,
010011,
110011,
010011,
110110,
110011,
000000,
110011,
010100,
110100,
110011,
110001,
110010,
110100,
110001,
110010,
010001,
110011,
010010,
010011,
110011,
111001,
010011,
010010,
010001,
010001,
110100,
010011,
110101,
010100,
110010,
010101,
010001,
010101,
010010,
110010,
010101,
110010,
110010,
110100,
010100,
110101,
010010,
110101,
010011,
010100,
110011,
110010,
110100,
010100,
010011,
110110,
110011,
010111,
010011,
110001,
110001,
010011,
010011,
010101,
110100,
010011,
110010,
010001,
110011,
010011,
110010,
110101,
110011,
010011,
110010,
010110,
110011,
010100,
010011,
110101,
110010,
110011,
010011,
010100,
010101,
010011,
010011,
110101,
110010,
110100,
110110,
110011,
010110,
110010,
010100,
010110,
110100,
110011,
010011,
010011,
110100,
010100,
110110,
110010,
010111,
110010,
010100,
000000,
110100,
100000,
110100,
110110,
110010,
010100,
110010,
010001,
000000,
000000,
000000,
100000,
000000,
010011,
010010,
011001,
110011,
110011,
000000,
010011,
010100,
010011,
010001,
010101,
110101,
010100,
110101,
110101,
000000,
100001,
010011,
010011,
010101,
110010,
010100,
110011,
110110,
110101,
100000,
110010,
010001,
110001,
110011,
000000,
010011,
110110,
110100,
110011,
010011,
110100,
100000,
110001,
010001,
110011,
010101,
010101,
010101,
110011,
110101,
010010,
110011,
110001,
110100,
010110,
110010,
010100,
110011,
110011,
010100,
110100,
010011,
110010,
010010,
110110,
110011,
110101,
110011,
010100,
110011,
010011,
110011,
110010,
110011,
010011,
110011,
110011,
110101,
110110,
110011,
110011,
110110,
010010,
110101,
110011,
110010,
010011,
110010,
110100,
110010,
110010,
110011,
010100,
010011,
110011,
110110,
010011,
110011,
110101,
010110,
010010,
110011,
110100,
110010,
110100,
010010,
110101,
010101,
010110,
010100,
110100,
010010,
110010,
010011,
010100,
111010,
110010,
010110,
110011,
010010,
000000,
100000,
110001,
110011,
010011,
110011,
010011,
010011,
110011,
000000,
010010,
110011,
010011,
110100,
010001,
010100,
110011,
010011,
110010,
010101,
010101,
110011,
110011,
010010,
010110,
110110,
110011,
010100,
110101,
010100,
111001,
010100,
110011,
110011,
010101,
010101,
010101,
110010,
010101,
110011,
010110,
010101,
011000,
110011,
110011,
111000,
010011,
110010,
110011,
110011,
110100,
110110,
010101,
110010,
010011,
110101,
010011,
110010,
110011,
110011,
010101,
110011,
110101,
010011,
110001,
110010,
110100,
110011,
010011,
110010,
110010,
110010,
010011,
110001,
010101,
110011,
010100,
110011,
110011,
011000,
110010,
000000,
110010,
110001,
110011,
110101,
010100,
010101,
110110,
110011,
000000,
000000,
110100,
110001,
110011,
010011,
110100,
110011,
010100,
010011,
000000,
110011,
110001,
110100,
000000,
110101,
110010,
010100,
010011,
010010,
010001,
010010,
110010,
010011,
010001,
110011,
110101,
010100,
010100,
110100,
110011,
010100,
010001,
010010,
110010,
110010,
010100,
110011,
110100,
110100,
110001,
010100,
010011,
010100,
110110,
010100,
010100,
010100,
110011,
110010,
111000,
010110,
010011,
010110,
010100,
010101,
110100,
110010,
110010,
010101,
010011,
111000,
110010,
110011,
010100,
110010,
010011,
010101,
110100,
110100,
110101,
110100,
010001,
110011,
110001,
110011,
010100,
010011,
010100,
110110,
110011,
010001,
010001,
110010,
110011,
010011,
110011,
110011,
010001,
110100,
110100,
010010,
000000,
110010,
110011,
000000,
110100,
010110,
010100,
110100,
010010,
010011,
010010,
010011,
110011,
110010,
110010,
110111,
110100,
110010,
010100,
010001,
010001,
010101,
110001,
110011,
110010,
110100,
110011,
110010,
110010,
110011,
000000,
010100,
110001,
110011,
010100,
010110,
010100,
110110,
110010,
011001,
010001,
110001,
110011,
110011,
110011,
110011,
110010,
110100,
110101,
010011,
110110,
010100,
010110,
110011,
010100,
010101,
110011,
110011,
110101,
010011,
110011,
110010,
010011,
110011,
111000,
110011,
110010,
110010,
110101,
110011,
010110,
010100,
010011,
010110,
010011,
010011,
010100,
110011,
110011,
110011,
110001,
010110,
010011,
110011,
010110,
110011,
010101,
010101,
110001,
100001,
100000,
010011,
110100,
010100,
010110,
110011,
110010,
000000,
010001,
010001,
010001,
010100,
010100,
010011,
110011,
110100,
110011,
110010,
010010,
110001,
110010,
110001,
110011,
110010,
010110,
110010,
110101,
100000,
010001,
010001,
000001,
110101,
010010,
110101,
110011,
010011,
110100,
110010,
110011,
000001,
010001,
110101,
010001,
110111,
110100,
010011,
010011,
010101,
110011,
010001,
010111,
110010,
010010,
010011,
010011,
110010,
010100,
010011,
100000,
110001,
010001,
110101,
010110,
011000,
010011,
110101,
010011,
110100,
011010,
110011,
010110,
110100,
110010,
010101,
110011,
010100,
110010,
010011,
110010,
110110,
110011,
110011,
110010,
010011,
010011,
110011,
010100,
110010,
110011,
010100,
010011,
110010,
010100,
110010,
110100,
110011,
010101,
010100,
010010,
010011,
000000,
000001,
110011,
010100,
110010,
010011,
110001,
110010,
010001,
100001,
100000,
010001,
110100,
100000,
010011,
110011,
010100,
110100,
110001,
010001,
010100,
110010,
110100,
010100,
010100,
110100,
010011,
100000,
010010,
100000,
010011,
010100,
000010,
010100,
110101,
110010,
110100,
000000,
010001,
100001,
110010,
010111,
010001,
110011,
010100,
010100,
010101,
010010,
010011,
000010,
000001,
110011,
010010,
110010,
110100,
010011,
110010,
010100,
010001,
010011,
010001,
010011,
010100,
110010,
110100,
010100,
110100,
010100,
010110,
010011,
110011,
100000,
110100,
111000,
010100,
010011,
010011,
110011,
010011,
010101,
010110,
010011,
010100,
110011,
010011,
010011,
010011,
010011,
010011,
110100,
010100,
110100,
010011,
010011,
010101,
010100,
010011,
010011,
110101,
110010,
110011,
110011,
110110,
110011,
010011,
010011,
010110,
010011,
010011,
010001,
010010,
110011,
110100,
100001,
111000,
110011,
110011,
110011,
110010,
110001,
010010,
100000,
110101,
110011,
110010,
110110,
011000,
110101,
110011,
000000,
010001,
010011,
010011,
010011,
010100,
110110,
110100,
110001,
110100,
110010,
010010,
010100,
010010,
010100,
010011,
110010,
110010,
010101,
110100,
100011,
110001,
010001,
010101,
110011,
010011,
110100,
110010,
010101,
110010,
010010,
110110,
110011,
010100,
010100,
110011,
010011,
110101,
110100,
110011,
110011,
010100,
010110,
010100,
110011,
110101,
110100,
010111,
010011,
110011,
110011,
010100,
110011,
010100,
110011,
010101,
110011,
010011,
110110,
110100,
110101,
011100,
110101,
110011,
110011,
010100,
110011,
110010,
010011,
010010,
010001,
010010,
110010,
010011,
010101,
010011,
110011,
110100,
010010,
010010,
110010,
010011,
110001,
110010,
110001,
010011,
110011,
110011,
010010,
110011,
100000,
110100,
000010,
110011,
010100,
110101,
010100,
110010,
010001,
110100,
010001,
010001,
010011,
110011,
110011,
010011,
110100,
010101,
110001,
110011,
110011,
010010,
110011,
000000,
010101,
011100,
010011,
110011,
110010,
110011,
110010,
010011,
010001,
010100,
010011,
010011,
110011,
010100,
010011,
110010,
110100,
110011,
110010,
010111,
010111,
110011,
110100,
010011,
010101,
110100,
110111,
111110,
010100,
010101,
110100,
110011,
110011,
010011,
111000,
010101,
110100,
110010,
110010,
010011,
010100,
010011,
110011,
110010,
110011,
010100,
110011,
010001,
110011,
110100,
110100,
010100,
110100,
010100,
010110,
110011,
010001,
000000,
010001,
110100,
010100,
010011,
110010,
100001,
100000,
111000,
010101,
010010,
110010,
110100,
100001,
110100,
010100,
110011,
110001,
110001,
010100,
010010,
110001,
010100,
110010,
110110,
010011,
110100,
110010,
010110,
110001,
110001,
010011,
010010,
110010,
110100,
110011,
010011,
010001,
010010,
110101,
100000,
110011,
110011,
110011,
110011,
110011,
110010,
110101,
110011,
000010,
110010,
010001,
010011,
010110,
110100,
010011,
110110,
010101,
110100,
110011,
010010,
110011,
010101,
110010,
010100,
110011,
010100,
110011,
110101,
010100,
010100,
111110,
010011,
010100,
010011,
010100,
110011,
110101,
110100,
110011,
110110,
110011,
110110,
110100,
010100,
010011,
010011,
110100,
110100,
110011,
110100,
010011,
110111,
110011,
010100,
010011,
110010,
010101,
110011,
110001,
110001,
110011,
110011,
010100,
110010,
110101,
110110,
010011,
110011,
110100,
010001,
010010,
110110,
110001,
110100,
110011,
110011,
110001,
110001,
010011,
110100,
110011,
110011,
010101,
010110,
110100,
010110,
110010,
010010,
010010,
110010,
110011,
010110,
110110,
110110,
110100,
010100,
010010,
010100,
110010,
100000,
110011,
110010,
010011,
110011,
010100,
110011,
011000,
010100,
000010,
010001,
110010,
110011,
010110,
110010,
110010,
110101,
110100,
110010,
110011,
100000,
110011,
010110,
110010,
110011,
110011,
010101,
110010,
110011,
110011,
010011,
110010,
010011,
110100,
110100,
010100,
110011,
010011,
010011,
110011,
010011,
110010,
110101,
111110,
110011,
110010,
110011,
110011,
010100,
010101,
010001,
110011,
100001,
110011,
110011,
110011,
110100,
110010,
000000,
000010,
110100,
110110,
010101,
110100,
010011,
010100,
010100,
100001,
100000,
110001,
110010,
110001,
110010,
010011,
010011,
110011,
010011,
100000,
110010,
010001,
010001,
010001,
010101,
100000,
010011,
010011,
010101,
110010,
010111,
100000,
100000,
110011,
010001,
010100,
010011,
010011,
110101,
010001,
010010,
010011,
110110,
010011,
000000,
010100,
110101,
010011,
010011,
010011,
110011,
000000,
010001,
100000,
110011,
111000,
010011,
110011,
010101,
110011,
010001,
110111,
110011,
010100,
110100,
110011,
110010,
110100,
010110,
110011,
010100,
010011,
110010,
110101,
010100,
110011,
110100,
110010,
110011,
110010,
010110,
111001,
110010,
010100,
010100,
110101,
110100,
110011,
010011,
010011,
110011,
010101,
110010,
110011,
010101,
110101,
110101,
010100,
010100,
010101,
010100,
110001,
110001,
010010,
110011,
110011,
011001,
110011,
110011,
010001,
010001,
110100,
110010,
010001,
010011,
100001,
110100,
110011,
110010,
010010,
010010,
110010,
110001,
000000,
110011,
110011,
110011,
010101,
110010,
010011,
010010,
110001,
110001,
110011,
110010,
010011,
010100,
110100,
010011,
010100,
110110,
110101,
110010,
110101,
010100,
010100,
010011,
110011,
110101,
110011,
110011,
010001,
110001,
010001,
110100,
110100,
110011,
010100,
010101,
110100,
010010,
110110,
110010,
010100,
110010,
110011,
010101,
110011,
110011,
110101,
010110,
010010,
010100,
010011,
010100,
010011,
010110,
110101,
010101,
110010,
110010,
010101,
110100,
110011,
110101,
110010,
110011,
010011,
110100,
110011,
010100,
110011,
010001,
010011,
010011,
110011,
110011,
110100,
110101,
110011,
110100,
110010,
010011,
010111,
110010,
010011,
110101,
010011,
010100,
110001,
110010,
010010,
000000,
110011,
110010,
000000,
110010,
010101,
110110,
110100,
110010,
010010,
010101,
110011,
010011,
110010,
010101,
110011,
010011,
110001,
110100,
110011,
010001,
110011,
110001,
110010,
110101,
010100,
010011,
110001,
110010,
011000,
110001,
010011,
100000,
010011,
110110,
110010,
010101,
010011,
010011,
010100,
110101,
100000,
110101,
110010,
010101,
110111,
010011,
010101,
011001,
010110,
110100,
110011,
110011,
011000,
110101,
110011,
110010,
110011,
010100,
110011,
110011,
010100,
110010,
110010,
010011,
010100,
110100,
110011,
110100,
010100,
010011,
110010,
110011,
110100,
010011,
110111,
110011,
110100,
110011,
110011,
110011,
110110,
010011,
010101,
010100,
011000,
010100,
011100,
010010,
010100,
010010,
000000,
110011,
010110,
010100,
110100,
110011,
010010,
010010,
110001,
110011,
010001,
110101,
100001,
110011,
110101,
010100,
010001,
010011,
110110,
110010,
000000,
110011,
110010,
110010,
110100,
110100,
110010,
110110,
010101,
100000,
110011,
010100,
110100,
010011,
110011,
110101,
110100,
010101,
010001,
110011,
010100,
010001,
010011,
010011,
110101,
010101,
110111,
010101,
110001,
100000,
000000,
010011,
110011,
010011,
110011,
110011,
010101,
010001,
110100,
010010,
010011,
010011,
010100,
110100,
110100,
110101,
010011,
110100,
110011,
010011,
010100,
010100,
010011,
010011;
