memory_initialization_radix=2;
memory_initialization_vector=
00000000010001001011,
00000000010000011000,
00000000010110110011,
00000000000010011100,
11111111111000011111,
00000000010100001001,
00000000000110000101,
00000000011000011011,
00000000001011001011,
00000000000010101000,
00000000000011010001,
00000000001001010100,
00000000010011111110,
00000000000010100000,
00000000001100110001,
00000000000101010110,
00000000010001110110,
11111111011100010111,
00000000011000001111,
00000000001101101111,
11111111111111010101,
00000000001101011001,
00000000000010001001,
00000000000000000001,
11111111111100010000,
11111111111011110111,
00000000001110011010,
00000000010000011000,
11111111101011111100,
00000000011000000111,
11111111110001110100,
00000000010101000110,
00000000010011110011,
00000000000111000100,
00000000001000001000,
00000000010110011011,
11111111111101001001,
00000000000111110101,
00000000000100100011,
00000000010111000000,
11111111111100111111,
11111111110000101010,
00000000001011001100,
00000000000011001100,
00000000001010100111,
00000000000010100110,
11111111110010010001,
00000000000111100000,
00000000011011001111,
00000000000110011010;
