memory_initialization_radix=2;
memory_initialization_vector=
11111111111111010001,
00000000001011001100,
11111111111010000010,
00000000000110000000,
11111111111000110101,
00000000001001111110,
00000000000000010100,
00000000000000000110,
00000000000101110111,
11111111111000100011,
00000000000001001010,
11111111111010111111,
00000000001000001101,
11111111111111010101,
00000000000011010000,
11111111111111001011,
11111111111000100001,
00000000001011010111,
00000000000111101110,
00000000001001010110,
00000000000101110110,
11111111111110100001,
00000000001010100111,
00000000000001010100,
00000000001110000011,
00000000000101111110,
00000000000010101110,
00000000000101001011,
00000000001010000010,
00000000000110101101,
11111111111111111100,
00000000010000110001,
00000000000110101101,
11111111111111011110,
00000000001010011010,
00000000000101100101,
00000000000001100110,
11111111110111111101,
00000000010101001111,
00000000000000011000,
11111111111111101110,
00000000001000110001,
00000000001011110001,
00000000000010111011,
00000000000111110101,
11111111111100000111,
11111111111111010000,
11111111111111100010,
11111111111011110100,
11111111111000101000,
11111111111111111111,
11111111111010101011,
00000000000111110000,
00000000000110001111,
11111111111000111010,
00000000000100110011,
11111111111111010111,
00000000000011111011,
00000000000111001111,
00000000001101011101,
00000000001001101000,
00000000000001011011,
00000000000010110110,
00000000000010011001,
00000000001101111011,
11111111111010011111,
00000000000000111011,
00000000001001011000,
11111111110110001100,
00000000000100010100,
11111111111100111001,
00000000001101110011,
00000000000000011010,
11111111111111010101,
11111111111101100101,
00000000001100111011,
11111111111111100010,
11111111110101000111,
00000000000001100111,
00000000000001101010,
00000000001100100010,
00000000001111011001,
11111111111111110001,
11111111111111001111,
11111111111111001010,
00000000000100100010,
11111111111011000001,
00000000000000001111,
00000000000001101100,
11111111111111100000,
11111111111111010011,
11111111111101001001,
00000000000001010001,
11111111111111000101,
00000000000101110010,
00000000000100010001,
11111111111111011100,
00000000000110110001,
00000000000000110010,
00000000000100111111;
