memory_initialization_radix=2;
memory_initialization_vector=
00000000000100100100,
00000000000011101110,
00000000000101001110,
00000000001000110010,
11111111111011000010,
11111111111011001010,
00000000001000100001,
00000000000100101100,
00000000000101100110,
00000000000100111011,
11111111111101000011,
00000000000101010111,
00000000001001010010,
00000000000101001110,
00000000001110100000,
11111111111101001100,
11111111111110001011,
00000000000001111010,
11111111111101110010,
00000000000110001011,
00000000000000100111,
11111111111110101100,
00000000000011110110,
00000000000100000011,
11111111111110000001,
11111111111111101000,
00000000000010000001,
00000000000110111101,
00000000000011101111,
00000000000100101000,
00000000000001000110,
11111111111110000001,
00000000000101001010,
11111111111110010011,
11111111111101101010,
00000000000100001001,
00000000000010000101,
00000000001010010010,
11111111111010001100,
00000000001010110110,
00000000000011111110,
11111111111100000001,
00000000001000011001,
00000000000010100100,
00000000000111000000,
00000000000100110001,
11111111111000010101,
00000000000011011011,
11111111111101111011,
00000000000100101001;
