memory_initialization_radix=2;
memory_initialization_vector=
111000,
110111,
111000,
110100,
010100,
010110,
110110,
010110,
110111,
010111,
010111,
010110,
010101,
110111,
010110,
110101,
010111,
011011,
010100,
010110,
110011,
110100,
010110,
010100,
111010,
010110,
110101,
011001,
110110,
010110,
110101,
010101,
110100,
111001,
111001,
110101,
010101,
010010,
010010,
010111,
010110,
110111,
011000,
110111,
111110,
010101,
110101,
010110,
010111,
111000,
011010,
010111,
011000,
010100,
110111,
010110,
010101,
111010,
110110,
011000,
010111,
010111,
010101,
011011,
010111,
011000,
011001,
110111,
010111,
111000,
011001,
010110,
010111,
011000,
110111,
111000,
010101,
010101,
110101,
010101,
010111,
110110,
111011,
111000,
111000,
110110,
010100,
011001,
011000,
110110,
110101,
111000,
010111,
010111,
010110,
110111,
111011,
110100,
011001,
010110,
110111,
110101,
010100,
110100,
110110,
010101,
010100,
110101,
111000,
110111,
110110,
010101,
010100,
011000,
110011,
010101,
010101,
011001,
010011,
110110,
010011,
010101,
111000,
010111,
010110,
010100,
011000,
010110,
011001,
110110,
110100,
110111,
010011,
011100,
010111,
110100,
111010,
110100,
110010,
011010,
010110,
111000,
010100,
010100,
010110,
010010,
011000,
011001,
010100,
110101,
110110,
010110,
011000,
010111,
110101,
110011,
011001,
110011,
010110,
010101,
111000,
010101,
010101,
010101,
110101,
010111,
111000,
111010,
110100,
010101,
011010,
110110,
010100,
011010,
010101,
011000,
010111,
111000,
110111,
010101,
110111,
110101,
010101,
111001,
110110,
111010,
010100,
110110,
010101,
010101,
110110,
110111,
010110,
011010,
111000,
010110,
010110,
010011,
010110,
110101,
111000,
010110,
010101,
010101,
110111,
010100,
110100,
010111,
010110,
110101,
111001,
110101,
110100,
011000,
110101,
110100,
010101,
010111,
010100,
110100,
010110,
110101,
010011,
110100,
110101,
010101,
110101,
110101,
110100,
110110,
110101,
010100,
110111,
110111,
010110,
010100,
010110,
010111,
010100,
011001,
110101,
010101,
010100,
010101,
110111,
010110,
110110,
110111,
010101,
110100,
011111,
110100,
011011,
010111,
110101,
010011,
110111,
010101,
110111,
110100,
110110,
010101,
010101,
011011,
110110,
110111,
010110,
111111,
110100,
110110,
010100,
110100,
110110,
110101,
010100,
010111,
111001,
111001,
110101,
010100,
010111,
110110,
111000,
111110,
111011,
111010,
010011,
010110,
110110,
011000,
111001,
010101,
110101,
111000,
010100,
110011,
010101,
010100,
110110,
111000,
011000,
011001,
010111,
110110,
010100,
110101,
010011,
011000,
110110,
110101,
110111,
110100,
010110,
110110,
010111,
110110,
110011,
110101,
011011,
011001,
111001,
110110,
010100,
110011,
110101,
011100,
010111,
110110,
110100,
110100,
110110,
110101,
010010,
010100,
111001,
011000,
010110,
110101,
010111,
110101,
011010,
011001,
010111,
010011,
110101,
111001,
111001,
011010,
110101,
110110,
111001,
010111,
010101,
110101,
111000,
111000,
110101,
111000,
110110,
011001,
010111,
010111,
111001,
110111,
010111,
010110,
110110,
110111,
110101,
110101,
110111,
110110,
010101,
010110,
111011,
110011,
110110,
111110,
110101,
011001,
010110,
110110,
110100,
011010,
011001,
010010,
011000,
011000,
010101,
011001,
011001,
010101,
010101,
011001,
110101,
010101,
111000,
110100,
011011,
110110,
111001,
110101,
010110,
010100,
110101,
011010,
011000,
010110,
011010,
010101,
011000,
011000,
010100,
111101,
110101,
010100,
110110,
010100,
111000,
010100,
110110,
110100,
110101,
110100,
110101,
010101,
110100,
010101,
011100,
010101,
110101,
110100,
110011,
010101,
110100,
110111,
011000,
110111,
011001,
010011,
110110,
110110,
110110,
111010,
110110,
110101,
111010,
110111,
110100,
010111,
011000,
110011,
010011,
011000,
010100,
010011,
111001,
110101,
110111,
110100,
010100,
010110,
110011,
010110,
010111,
011001,
010101,
010111,
110111,
010101,
110101,
110101,
110110,
010111,
111011,
110011,
010111,
110111,
010100,
010110,
110101,
010100,
010111,
011011,
110110,
110111,
110011,
111010,
010100,
010110,
011001,
010110,
110101,
010101,
111010,
110100,
010111,
011000,
010101,
010011,
111001,
110101,
110101,
111000,
010100,
110101,
111101,
110110,
111001,
110011,
111001,
110110,
010100,
110110,
010110,
010101,
110110,
011001,
010110,
010101,
011110,
010101,
110110,
011011,
010101,
110111,
110110,
011010,
110110,
111000,
010110,
110010,
011000,
010101,
010100,
111000,
111000,
110110,
011000,
010011,
010101,
010110,
010100,
111000,
110110,
110011,
111001,
111000,
110011,
010100,
010110,
011000,
111000,
110111,
111000,
010111,
110111,
010011,
110111,
010101,
010111,
010100,
010111,
010110,
110111,
011001,
110101,
110111,
010101,
110110,
110110,
010101,
110111,
110110,
010110,
110111,
011100,
011001,
110110,
010011,
111000,
110100,
010101,
110110,
110111,
010111,
010010,
011001,
111011,
110111,
110111,
111100,
111001,
010111,
011001,
110101,
011100,
110110,
010100,
010011,
010101,
111001,
110101,
011001,
110011,
010101,
010110,
110101,
110110,
110110,
111010,
110111,
010011,
110111,
010101,
110100,
110110,
111010,
110110,
110100,
010011,
110111,
010101,
010101,
111001,
010101,
110100,
110111,
010110,
011001,
011101,
110110,
111001,
110110,
110110,
010011,
111000,
110111,
110110,
010100,
110101,
011000,
110100,
010100,
110101,
110011,
110110,
110110,
010111,
010100,
110101,
010100,
110011,
110110,
011010,
010100,
110111,
010110,
110110,
011001,
010111,
011000,
110100,
111000,
110100,
110100,
010110,
110101,
010101,
010111,
110011,
010101,
010011,
110111,
110100,
110100,
010101,
110100,
010101,
011000,
010100,
010100,
110111,
010101,
111010,
110100,
110010,
110111,
110111,
110110,
011001,
010010,
110100,
110110,
010111,
010010,
110011,
010101,
110110,
010101,
110111,
010111,
010111,
011110,
010101,
010110,
010101,
111011,
111000,
110110,
111001,
010011,
010100,
010110,
111001,
110100,
010100,
110100,
110100,
010101,
110100,
111001,
110110,
011010,
011000,
110111,
010011,
110100,
110110,
110101,
110100,
110100,
010101,
010101,
110111,
110100,
010101,
111000,
010101,
010111,
111001,
110101,
110010,
110100,
010110,
010110,
011000,
010101,
010011,
010111,
110011,
010101,
110110,
010110,
110100,
110110,
111001,
010010,
110101,
111000,
110100,
010101,
110011,
110011,
110011,
010111,
110011,
010011,
010101,
011000,
110111,
010101,
110011,
111000,
010011,
110110,
010111,
010101,
110100,
110011,
010111,
110011,
110011,
010111,
111000,
111000,
110100,
010111,
110010,
010111,
110101,
110011,
110100,
110111,
010100,
110100,
110100,
110101,
010100,
010100,
111000,
010111,
110111,
010110,
111001,
110111,
110110,
011100,
010011,
110101,
111000,
110111,
111010,
110101,
110110,
010100,
011000,
010011,
010111,
010011,
111011,
010110,
110011,
110110,
110101,
110011,
010111,
010100,
110110,
010101,
110100,
010100,
010110,
010011,
010101,
010011,
010101,
010111,
010110,
010110,
110101,
010101,
010010,
010111,
111001,
111011,
110110,
011000,
110011,
010110,
010100,
010110,
011100,
010101,
110111,
011000,
111010,
010011,
111000,
110111,
111000,
011000,
010110,
110111,
010110,
110100,
110110,
010011,
010111,
110101,
010101,
110100,
110011,
011000,
110010,
010101,
011000,
010011,
110101,
010011,
111010,
010101,
010101,
110101,
011000,
110100,
011000,
010110,
010101,
110110,
010110,
110101,
010011,
011000,
010100,
110100,
010110,
011000,
111000,
110011,
010101,
110101,
110111,
010111,
111000,
110101,
111000,
010110,
010100,
011001,
010101,
010100,
110101,
110110,
110111,
111000,
110101,
110010,
010100,
010101,
010100,
111011,
110100,
010110,
110111,
010100,
110100,
110100,
111101,
110110,
110100,
110100,
010110,
110101,
010101,
110111,
010111,
110110,
110110,
010100,
110110,
010011,
110111,
111000,
010110,
011001,
010111,
110110,
010100,
010110,
110111,
010011,
010111,
010101,
110011,
011010,
011101,
010101,
010101,
111010,
111011,
110110,
110110,
110100,
010110,
010101,
010100,
111010,
010011,
110101,
111010,
010100,
110011,
110111,
110110,
110111,
010110,
011000,
010010,
010110,
010110,
110101,
010101,
010111,
110111,
110011,
110101,
110111,
111001,
010101,
110101,
011001,
010100,
110101,
110101,
110110,
111010,
110101,
010110,
011000,
011001,
110110,
010101,
111000,
010110,
010100,
110011,
110110,
010101,
011010,
110110,
010101,
010110,
111100,
110101,
010100,
011010,
110101,
010101,
010111,
110101,
010111,
110101,
011001,
111001,
110100,
011001,
111100,
010101,
010100,
110101,
110110,
110101,
110111,
110110,
111001,
110110,
010110,
011010,
010101,
011001,
010100,
110110,
010111,
110110,
010011,
010110,
110111,
110100,
010100,
110110,
010111,
111001,
011001,
110011,
011001,
111010,
110110,
010110,
110110,
111000,
110011,
110101,
110110,
110101,
110100,
010111,
110100,
110111,
110111,
010110,
011000,
110111,
011000,
010111,
011001,
110101,
010101,
110100,
110011,
010110,
010101,
011001,
110111,
010101,
110100,
110100,
110111,
111000,
010111,
111000,
010101,
110011,
110110,
111000,
011011,
011001,
010011,
110011,
110101,
010110,
011000,
010100,
110100,
110011,
010100,
011001,
010101,
011000,
110111,
011000,
010110,
010111,
111011,
110101,
111111,
110110,
010100,
010111,
110101,
110100,
010100,
010100,
010101,
010011,
110011,
110100,
111000,
110111,
110101,
010010,
111100,
111010,
110110,
111010,
010110,
110101,
110100,
010101,
110101,
111000,
010100,
110101,
010011,
011001,
010111,
010110,
111000,
110011,
010111,
111010,
010111,
010101,
010101,
010111,
010110,
011000,
111001,
110110,
011000,
111001,
010101,
011000,
011000,
110101,
010100,
011001,
110111,
010100,
010110,
010100,
010111,
110110,
010111,
010101,
110111,
010111,
010110,
110110,
110011,
110110,
110100,
110111,
110110,
110110,
111000,
010110,
010110,
010101,
010110,
010110,
111000,
110011,
111001,
011000,
010101,
010101,
110111,
110100,
111010,
010110,
111010,
010110,
110100,
010011,
011000,
011000,
010110,
110101,
010101,
010101,
010101,
010111,
010111,
011010,
110110,
011001,
110100,
110110,
110110,
110100,
111011,
010101,
010101,
110110,
110110,
111001,
011001,
111000,
110110,
010110,
011111,
110101,
011010,
111001,
110111,
110111,
111001,
010101,
110110,
010100,
010111,
111010,
110110,
110111,
111000,
010111,
110111,
010101,
110101,
110100,
110100,
110110,
110111,
110110,
110100,
010111,
110100,
010101,
110111,
110100,
110110,
110111,
110101,
111000,
010101,
110100,
111000,
110100,
110101,
011010,
110111,
010101,
011000,
110110,
110101,
011011,
010101,
010111,
010111,
011000,
010101,
010110,
111001,
111001,
011001,
011010,
111010,
110110,
110110,
110110,
110111,
010011,
011010,
011010,
011001,
011000,
111001,
010101,
111000,
010110,
110111,
111000,
010010,
110110,
110101,
110101,
110100,
010110,
110100,
110110,
110100,
110100,
110110,
010011,
011010,
110101,
110100,
110010,
010110,
010100,
110101,
010011,
110100,
010100,
011001,
010100,
110111,
111000,
010101,
010011,
010100,
010010,
111001,
110110,
010011,
110111,
010011,
010100,
110110,
011001,
110101,
111000,
010101,
010110,
110110,
110111,
010101,
010100,
110010,
011000,
010110,
010101,
010011,
010101,
110111,
010111,
110100,
010110,
010011,
111000,
011000,
110101,
010100,
010100,
010110,
111100,
110110,
010100,
110101,
110100,
011011,
110111,
010101,
110011,
010011,
010110,
010100,
110110,
010100,
010111,
110110,
010011,
110111,
110110,
010011,
110011,
010101,
110100,
110110,
111000,
110100,
010101,
110111,
011001,
010101,
110101,
010100,
110110,
110011,
010100,
011000,
011011,
010110,
010101,
110101,
110110,
111000,
010111,
111000,
010110,
111000,
010110,
110101,
111000,
111000,
110011,
010101,
010100,
010101,
110100,
010100,
011000,
011001,
110101,
010100,
010101,
010110,
010011,
010111,
010111,
010111,
110100,
010100,
110100,
010011,
010101,
011000,
010100,
110110,
010100,
110101,
110101,
010110,
110111,
110110,
011101,
011001,
110100,
010100,
011001,
011001,
010101,
111011,
011010,
110111,
010101,
010011,
110101,
010110,
111001,
010110,
011000,
010101,
110100,
111000,
010101,
110100,
110100,
110111,
010100,
111101,
110111,
111000,
110110,
110111,
110111,
010101,
110110,
010111,
110101,
111000,
011100,
010110,
110110,
110110,
110100,
011001,
010110,
010111,
011011,
011000,
010111,
010111,
010111,
110100,
110110,
110100,
010111,
010110,
010101,
010011,
010110,
110100,
110101,
110101,
010101,
010111,
110110,
010011,
110100,
010110,
110100,
011010,
010110,
010100,
110100,
110101,
111000,
011000,
111010,
010110,
010110,
010111,
110101,
010101,
110101,
010101,
010111,
010101,
110101,
111110,
110100,
011000,
110111,
010111,
010111,
011001,
110110,
110100,
010101,
010101,
010110,
110101,
111001,
010110,
010111,
010110,
011010,
111001,
110110,
011000,
010110,
110101,
010110,
010110,
110110,
110011,
111100,
111010,
111100,
010111,
110011,
110011,
110100,
111000,
011010,
111000,
110110,
011001,
010101,
110101,
110110,
010111,
110110,
010101,
111100,
010110,
010100,
011000,
110101,
010111,
010110,
010101,
110110,
110100,
110100,
111000,
110111,
011000,
010111,
010100,
110110,
010111,
010111,
110100,
110110,
110100,
010110,
111011,
110110,
110100,
111011,
010110,
011010,
110101,
110101,
111010,
010100,
110101,
010101,
010101,
010111,
011000,
011000,
011000,
110111,
110111,
010111,
010101,
010101,
011000,
111001,
111000,
111000,
010110,
110111,
111101,
111101,
011001,
110101,
010111,
011000,
110110,
110101,
110110,
010101,
110100,
110110,
010101,
110101,
110110,
010100,
010101,
110111,
010111,
010111,
011001,
110100,
110111,
111001,
110011,
010101,
110110,
010110,
111000,
110101,
111010,
011011,
110100,
010101,
010111,
011011,
011000,
011000,
110011,
011000,
010110,
110110,
110100,
011010,
110100,
010111,
010110,
010101,
110110,
110110,
110101,
011000,
011001,
010110,
110110,
010110,
011000,
011100,
011001,
111000,
011000,
110101,
010111,
110111,
110100,
010111,
011000,
110111,
010111,
010100,
010110,
010101,
111001,
110100,
110011,
111010,
110110,
110101,
011000,
111000,
111000,
010110,
111010,
110110,
111000,
010111,
010111,
111011,
110111,
010110,
111011,
110111,
010100,
110111,
010111,
010100,
110110,
110100,
110101,
110101,
010101,
110111,
010110,
010101,
110111,
110111,
111000,
010111,
110100,
011000,
110011,
110101,
110101,
011001,
110100,
110100,
110101,
110101,
111000,
110101,
011001,
110101,
010110,
010111,
110011,
110110,
110110,
010011,
111110,
110110,
110110,
010101,
010101,
110101,
110111,
110101,
110011,
011000,
110110,
110011,
110100,
110101,
110101,
111010,
010011,
010111,
011100,
110101,
010111,
110101,
110100,
010101,
010101,
010111,
010100,
110011,
110110,
110111,
010110,
110110,
111001,
111000,
110111,
010110,
110101,
110110,
011011,
110100,
110101,
111010,
010111,
010011,
010111,
010100,
010100,
011010,
110110,
011001,
010101,
110110,
011000,
010101,
011000,
111000,
010111,
111001,
010111,
010110,
010101,
010100,
010110,
011001,
011111,
110101,
110101,
010110,
110111,
010110,
110101,
110101,
010101,
110111,
110111,
010110,
010101,
110100,
110111,
010100,
010111,
110111,
010110,
011010,
110100,
010110,
011001,
010100,
010111,
010110,
010110,
010111,
010101,
011110,
110101,
011000,
010100,
010110,
111100,
011000,
110111,
110110,
110101,
110100,
011001,
010111,
110110,
110111,
110100,
110100,
110110,
110101,
111000,
010110,
111011,
110101,
010100,
110101,
011001,
110101,
010101,
111010,
110101,
110101,
110110,
011000,
111101,
110100,
110111,
010101,
010101,
110100,
110110,
110100,
111010,
111100,
110100,
010110,
110110,
110100,
111000,
111010,
010110,
111000,
111011,
110111,
010101,
110110,
010101,
010110,
010110,
110111,
011000,
110110,
011100,
110011,
110100,
010110,
010110,
011000,
110101,
110011,
010101,
010110,
110100,
110100,
110101,
110110,
011111,
010100,
010111,
110100,
110101,
010101,
110101,
110100,
110100,
010101,
010101,
010101,
111000,
010101,
010110,
110111,
010010,
110101,
110110,
110011,
111000,
110101,
110111,
010111,
011110,
110110,
111000,
010110,
110100,
010011,
010110,
110101,
111001,
110101,
010100,
011011,
110110,
011001,
010101,
110101,
010100,
010100,
110100,
110010,
110101,
111000,
011011,
110101,
010011,
011011,
011011,
010011,
011111,
011000,
011001,
110101,
110101,
111000,
110111,
010101,
011000,
011010,
011000,
010100,
110111,
110011,
110111,
110111,
110011,
111001,
110101,
111000,
110110,
010110,
110111,
011101,
010101,
010110,
110100,
110111,
011100,
110011,
010011,
011010,
010110,
010101,
111100,
110101,
110101,
110110,
110111,
111010,
110110,
110010,
111000,
010100,
111000,
011001,
011010,
110111,
010110,
010110,
010101,
110110,
110111,
010100,
110100,
110100,
110100,
010101,
010101,
010011,
110111,
110100,
010110,
111000,
010010,
110100,
010100,
010100,
110111,
110110,
110100,
011000,
111111,
110111,
011000,
010100,
010101,
010100,
011011,
010110,
011100,
010110,
010111,
010100,
110101,
011100,
010100,
110100,
010100,
010111,
010101,
110111,
010110,
010111,
011010,
110101,
010100,
110110,
010101,
010011,
111000,
110110,
110100,
110101,
010100,
110111,
110101,
110110,
010101,
111000,
111000,
110011,
110110,
110011,
011100,
110111,
110100,
010100,
110101,
110101,
010110,
010100,
011100,
010101,
110111,
110110,
110110,
110101,
111000,
010101,
110100,
111001,
110110,
011010,
110110,
110100,
110110,
010111,
110110,
110111,
010111,
010100,
111000,
110110,
110110,
110111,
011001,
110110,
110110,
010110,
111001,
010101,
011001,
110011,
010101,
010011,
011011,
111000,
110101,
110100,
110111,
111111,
111101,
111001,
010010,
111000,
010110,
010011,
010110,
110110,
110111,
110101,
110111,
110100,
111010,
111010,
010100,
110110,
111010,
010111,
111000,
011010,
110110,
110110,
110100,
010111,
110111,
010110,
110100,
010101,
110101,
010100,
010111,
010110,
110100,
011101,
010100,
010110,
011000,
110111,
011001,
011011,
010110,
010110,
110110,
010101,
110101,
110101,
110111,
111001,
111000,
010110,
010110,
110100,
010101,
010101,
110110,
010111,
010101,
110110,
011000,
110101,
011000,
010100,
011001,
010110,
010110,
110110,
111001,
010111,
110111,
011011,
011000,
110100,
011001,
010111,
111000,
011000,
110111,
010111,
110101,
111000,
111011,
011111,
011100,
011111,
111000,
110101,
011001,
010101,
011010,
110100,
011010,
010011,
010011,
010101,
110111,
110111,
011011,
010101,
110011,
110011,
010110,
110111,
010111,
010011,
110100,
110101,
010111,
110101,
011000,
010111,
010110,
011000,
010111,
010110,
010101,
110100,
011001,
110100,
010111,
110111,
010101,
010101,
111000,
010101,
110101,
110110,
010101,
111000,
010111,
110101,
110101,
011000,
010110,
110111,
010100,
111000,
010110,
010100,
110110,
010110,
010101,
111000,
010111,
010011,
011010,
110110,
110110,
110110,
110111,
110110,
011101,
011001,
110100,
110111,
111001,
110110,
010111,
111001,
110110,
011000,
110110,
011011,
011001,
010101,
111111,
010111,
010110,
010100,
010111,
110111,
111000,
110101,
110110,
010101,
110111,
010110,
010110,
010100,
010101,
110101,
010110,
110111,
010110,
110110,
111000,
111001,
010101,
011000,
110011,
010101,
010111,
111010,
010101,
110110,
110111,
011000,
011000,
110101,
111000,
110100,
111110,
010110,
010101,
110111,
010110,
011011,
110110,
011010,
110111,
110101,
110110,
111000,
010101,
010101,
011100,
011000,
011011,
110101,
110111,
010110,
110111,
011000,
110111,
010011,
110111,
110111,
110110,
010110,
010110,
110101,
110110,
010101,
010110,
110100,
111000,
111100,
110111,
111000,
110100,
111001,
110011,
010101,
010101,
110101,
110111,
011001,
110110,
110111,
110100,
011000,
010101,
111100,
110111,
110101,
110101,
010110,
010110,
010111,
111101,
111001,
010101,
010100,
010111,
111000,
010110,
011011,
010110,
110101,
110110,
110110,
010101,
110110,
010100,
010110,
010111,
010110,
110101,
011000,
011001,
010101,
110011,
110110,
110100,
110111,
011001,
110101,
010101,
011000,
010110,
010110,
011001,
110110,
110110,
010110,
011000,
110110,
010101,
110100,
110110,
111001,
010101,
011001,
110110,
110011,
010101,
010111,
011001,
110111,
010110,
010110,
010110,
110011,
111000,
011111,
010011,
010110,
011100,
110101,
010110,
111000,
111100,
011000,
010100,
011010,
110101,
010100,
010110,
110100,
010100,
110110,
010110,
011000,
010101,
110100,
010100,
111000,
110111,
010110,
011000,
011011,
110110,
010101,
011001,
010100,
010110,
010101,
011011,
011100,
010101,
110110,
010110,
011010,
010110,
011001,
110110,
010110,
010101,
010100,
111000,
010111,
010111,
110100,
010100,
110101,
110100,
111001,
011100,
110100,
110100,
010111,
111000,
110100,
010100,
010110,
010100,
110111,
010101,
010100,
110100,
010101,
110110,
010111,
111000,
010100,
010110,
110111,
010101,
111100,
010100,
110110,
010101,
110101,
110110,
110111,
010101,
010111,
010110,
010100,
110100,
110011,
111000,
010101,
010111,
010111,
010110,
111001,
010110,
011001,
010110,
010101,
110110,
010100,
110100,
111010,
110110,
010100,
011001,
010101,
110100,
111100,
010110,
110110,
010101,
110111,
011011,
010100,
110111,
110101,
010110,
010111,
110100,
110100,
110010,
010101,
010111,
110101,
111001,
010110,
010110,
011000,
010101,
110110,
010110,
111010,
111000,
111010,
010101,
110110,
010111,
111001,
010111,
111000,
111000,
110111,
110011,
110101,
111000,
111010,
010111,
110101,
111010,
110011,
010100,
110111,
110011,
010011,
010100,
010111,
110100,
010100,
111001,
010110,
110100,
110111,
111010,
111000,
110101,
111000,
110101,
011000,
010100,
010110,
010101,
110111,
110111,
010100,
111000,
010111,
111001,
110011,
111101,
010011,
010110,
110101,
110010,
010100,
110111,
010100,
110101,
010101,
010101,
110110,
010110,
110101,
010101,
010101,
010111,
011011,
110111,
110101,
011000,
011011,
010111,
110011,
010100,
110101,
110101,
010110,
010101,
010110,
010101,
110100,
010011,
110110,
110100,
110110,
110111,
111000,
110101,
010011,
011001,
110111,
010100,
110100,
010101,
110011,
011000,
010011,
110101,
111011,
111000,
010100,
011000,
110100,
110110,
110101,
011000,
010111,
110100,
110101,
110111,
111000,
010110,
110110,
010101,
110110,
011000,
010100,
110011,
111000,
110100,
010100,
110101,
010110,
010101,
110011,
010101,
110110,
110101,
111001,
111000,
110011,
010101,
110100,
010100,
111011,
010110,
010101,
110100,
111000,
010111,
110100,
110111,
011001,
111010,
110111,
110100,
110101,
010101,
010111,
110110,
010111,
110101,
010110,
110110,
111001,
010100,
110011,
111000,
111001,
011000,
110111,
111000,
110111,
011000,
010101,
110100,
110101,
110101,
010110,
110110,
010100,
011011,
010101,
010111,
011001,
011001,
111000,
010111,
010110,
011010,
011011,
010101,
110111,
110100,
010101,
110101,
010011,
011000,
111101,
110110,
010100,
010111,
110110,
010100,
010111,
011011,
110101,
010101,
110110,
110110,
010100,
010110,
110011,
011010,
110101,
010111,
110101,
010100,
110011,
110111,
111000,
110110,
010111,
111011,
110110,
010111,
010101,
010111,
010110,
011001,
010100,
110111,
010111,
010100,
110101,
010111,
011001,
010100,
011010,
110111,
110111,
110111,
111011,
010110,
110100,
110111,
110111,
111001,
010110,
011001,
110110,
111011,
010110,
010110,
010101,
110110,
010110,
110110,
111100,
010111,
010100,
010101,
010110,
010110,
110100,
010111,
010111,
010110,
011001,
110110,
011000,
010111,
110100,
110011,
010111,
111001,
110101,
110100,
110110,
110110,
011100,
110101,
010111,
110100,
010101,
010110,
111001,
111001,
010111,
110101,
110101,
011001,
111001,
110011,
010101,
110101,
010101,
010100,
111000,
011010,
010100,
110110,
110100,
110011,
010100,
111111,
111000,
010011,
110110,
110110,
110100,
110100,
110101,
010100,
111001,
111010,
010110,
010101,
010111,
111001,
011011,
011110,
110101,
010110,
010111,
010110,
111011,
010110,
110101,
110110,
011000,
111100,
010111,
110100,
010111,
110100,
011001,
110101,
010110,
110110,
010010,
111010,
111000,
111000,
110111,
010111,
010101,
011001,
110101,
011000,
011000,
110111,
011000,
010110,
010011,
011001,
011010,
010101,
010011,
111001,
111001,
010101,
010101,
111000,
110011,
111000,
110101,
010110,
010101,
011000,
010110,
011010,
010101,
110101,
010101,
010100,
011111,
110110,
110110,
111001,
010101,
110111,
110101,
010101,
011100,
111110,
110111,
110110,
011001,
010101,
010100,
111001,
010110,
110101,
110111,
010011,
110101,
010011,
010100,
111000,
011011,
111000,
010011,
110101,
011001,
010111,
010100,
110111,
111001,
010110,
110011,
010100,
111111,
110011,
110100,
010110,
010110,
010111,
010110,
111000,
010111,
011100,
110110,
010110,
110100,
111010,
111000,
010111,
110110,
010110,
110011,
010111,
110110,
011000,
111110,
010110,
011000,
010110,
110110,
111000,
010011,
010111,
010101,
110110,
110011,
010111,
110101,
010101,
110110,
011101,
110100,
111001,
010100,
011011,
010101,
010111,
010101,
010110,
010111,
110110,
011001,
010111,
010111,
110100,
010101,
010100,
010101,
010110,
110111,
010100,
110110,
110100,
011001,
010101,
010100,
110100,
110111,
110111,
110101,
111000,
010101,
110101,
010111,
010101,
110110,
111001,
010011,
110110,
110110,
110101,
011101,
110100,
010101,
110101,
010110,
010101,
110101,
110011,
110010,
110110,
011001,
111001,
110110,
010011,
010110,
010111,
010110,
111100,
110110,
110100,
010100,
010011,
110111,
010011,
110100,
111001,
111000,
010110,
011010,
010100,
010101,
110110,
110110,
110101,
010011,
110101,
110101,
110111,
010101,
011010,
010100,
111000,
110110,
010100,
011000,
110101,
011010,
111001,
110111,
011000,
110011,
110011,
010011,
110111,
110111,
110111,
110110,
010110,
010100,
010101,
111000,
010110,
111000,
010110,
010111,
110110,
010110,
011000,
110101,
010111,
010110,
110100,
111000,
110110,
110100,
010100,
110100,
010101,
110111,
010111,
111001,
110110,
110101,
010011,
110011,
110111,
010101,
110110,
111000,
111000,
110111,
010101,
110101,
111011,
011000,
111101,
110011,
110110,
111000,
110101,
110100,
011010,
011001,
111011,
110100,
110110,
111010,
110011,
010100,
010101,
110100,
111001,
111010,
010100,
010101,
011011,
110100,
110111,
011000,
010110,
011100,
111101,
011000,
110110,
110110,
110110,
010110,
010101,
010110,
011001,
110100,
110111,
010111,
010100,
110111,
010110,
110011,
110100,
011100,
110111,
110011,
110111,
010110,
110101,
110110,
010101,
010110,
111000,
110101,
110101,
010100,
010011,
010110,
011001,
110101,
110111,
011010,
010111,
110110,
010110,
110101,
010101,
110111,
111001,
111011,
010111,
111001,
111001,
111000,
110110,
010110,
110100,
110101,
110101,
110101,
110110,
110110,
110100,
010100,
111100,
011000,
110101,
111000,
010101,
110110,
110100,
110100,
010101,
110111,
110111,
010101,
010111,
110011,
010111,
111001,
110111,
110101,
011000,
010111,
110111,
111001,
011000,
110111,
010100,
110101,
010100,
010100,
111000,
110100,
010111,
010111,
111000,
010110,
110100,
110110,
110101,
010110,
110110,
110110,
011001,
011000,
011011,
011000,
110111,
110101,
110101,
011000,
110100,
010111,
110111,
010100,
011011,
110101,
110111,
110110,
110111,
010110,
010111,
010111,
110110,
110101,
010110,
111000,
011001,
111001,
010111,
010111,
110110,
011000,
111001,
110100,
110101,
110011,
110101,
010111,
110101,
110101,
010101,
110110,
110110,
010110,
010101,
010110,
010100,
011010,
010101,
110101,
010111,
011010,
110111,
011000,
110011,
010100,
010101,
111011,
010101,
110101,
110110,
010101,
111100,
111100,
110101,
110100,
110111,
110101,
111010,
110011,
011100,
110110,
111100,
110101,
010111,
010011,
110111,
010111,
110111,
110110,
011011,
010111,
010101,
110100,
110111,
010011,
010011,
110110,
110100,
111000,
011101,
010100,
010110,
110101,
010101,
010011,
010011,
010101,
110111,
010111,
010100,
110110,
010111,
110110,
010110,
011000,
010111,
110110,
011001,
011000,
010111,
010110,
010111,
010111,
110101,
010101,
011110,
010100,
110110,
110011,
010110,
110100,
110110,
110110,
110101,
110110,
010100,
010111,
111010,
111001,
010100,
011010,
010111,
011000,
110111,
110100,
011001,
010110,
010110,
010100,
010110,
110101,
011110,
110110,
110111,
010110,
010110,
110101,
110100,
011000,
111011,
010111,
010010,
110011,
110100,
010101,
110101,
111111,
010100,
110111,
010100,
110101,
010101,
110111,
110101,
111000,
110110,
110101,
010111,
110101,
110111,
010111,
110111,
010110,
010100,
111000,
011000,
110111,
110101,
010101,
110110,
110111,
111100,
010111,
010110,
110100,
010101,
110100,
110100,
110101,
111001,
010111,
010110,
111010,
110111,
110111,
110100,
010101,
110111,
111000,
110011,
110101,
110100,
010101,
110111,
010011,
010111,
011001,
011101,
010101,
110101,
010111,
011000,
110111,
011001,
111010,
110110,
110011,
010101,
110101,
011000,
111001,
010110,
110111,
010101,
111010,
110101,
110110,
110110,
010101,
110110,
111010,
010101,
110111,
111010,
110010,
110111,
110110,
011001,
010101,
010101,
110011,
111011,
010101,
111010,
110111,
011000,
010011,
110110,
011001,
111101,
010110,
010111,
110011,
111011,
010111,
011000,
010110,
010110,
011111,
010101,
110111,
111000,
010110,
110110,
011000,
110111,
011011,
011010,
010100,
011010,
011001,
010101,
010101,
011000,
010101,
010101,
111001,
011000,
110101,
011000,
110101,
110110,
110011,
110101,
010110,
010111,
110111,
110011,
010111,
010110,
010111,
110101,
010111,
110110,
011000,
010101,
111010,
011100,
010111,
010011,
010110,
110101,
110101,
010110,
110111,
110110,
110111,
010111,
011001,
011111,
010110,
110101,
111000,
010110,
110100,
110111,
110111,
110101,
110101,
010111,
010110,
010111,
110101,
110111,
111010,
110100,
110111,
010110,
010110,
111000,
010111,
011001,
110111,
110110,
010100,
011000,
111000,
011000,
110101,
010111,
110100,
110111,
011000,
110110,
111000,
011100,
110101,
010110,
111010,
010101,
111000,
110110,
011100,
010100,
010110,
111000,
111011,
011000,
010100,
011000,
010111,
111000,
111010,
010110,
111010,
110111,
011001,
110110,
110011,
011000,
010110,
011000,
110110,
111000,
110111,
110101,
010101,
110111,
110101,
110110,
011000,
110100,
110100,
110110,
011001,
111100,
010111,
011000,
010101,
010110,
110110,
010110,
110110,
011010,
110111,
110101,
110110,
010111,
110101,
010100,
110110,
011001,
011000,
011001,
010101,
110110,
110110,
010110,
110111,
010101,
110110,
110111,
111010,
110110,
010110,
010110,
011000,
010111,
110011,
111001,
010100,
111010,
110101,
011001,
010111,
110011,
111000,
110110,
111000,
011011,
011001,
110101,
010100,
010110,
110111,
010110,
110110,
011000,
110111,
111001,
110011,
110110,
010101,
010111,
010110,
010111,
111000,
010110,
110101,
011010,
011100,
110110,
010101,
111000,
010101,
010101,
011011,
011000,
110100,
111100,
010110,
011000,
110101,
111011,
010110,
011000,
010100,
011000,
111000,
111111,
010110,
010111,
011000,
010101,
110111,
011000,
110111,
010110,
010110,
110111,
110101,
111001,
110101,
110101,
110110,
110111,
010110,
010011,
110110,
010111,
010111,
111010,
111000,
010110,
110100,
110111,
111000,
110110,
010111,
110110,
110101,
011001,
011010,
010110,
011100,
111010,
111110,
010110,
011001,
010111,
010111,
110101,
111001,
110110,
010110,
111000,
010110,
010111,
110110,
011001,
110100,
010101,
110100,
110110,
010101,
010110,
010100,
111000,
010101,
110101,
011001,
110100,
110110,
010101,
110011,
110101,
010110,
010101,
010110,
010101,
110111,
010100,
010111,
010110,
010100,
110111,
010101,
110111,
110111,
010011,
010100,
010101,
110111,
110101,
011110,
111000,
110100,
010101,
110101,
110011,
010111,
111000,
011000,
110100,
110101,
010100,
110110,
010111,
110110,
110100,
010111,
010110,
111010,
110100,
010011,
111000,
010101,
011011,
010100,
110101,
110110,
110101,
011100,
011100,
110101,
110101,
110111,
010100,
111010,
010010,
010100,
111010,
010111,
010100,
110110,
110111,
010101,
010111,
110111,
110100,
010110,
110100,
110101,
111000,
111001,
110100,
011010,
111111,
011000,
110111,
111001,
010111,
110110,
111011,
010110,
011001,
011000,
110110,
010100,
010110,
110100,
111001,
010011,
011011,
111100,
010111,
010101,
011001,
010100,
110011,
010011,
110111,
111001,
110111,
011001,
010101,
110111,
111010,
010100,
110111,
010101,
111100,
010011,
010110,
011000,
110101,
010011,
111001,
010100,
010110,
110100,
011001,
010011,
010111,
010010,
110100,
010111,
010111,
010100,
110101,
110100,
110011,
110100,
110110,
010110,
010111,
010100,
010101,
010101,
110111,
110110,
110101,
010010,
010011,
010101,
011101,
110111,
111000,
010110,
010101,
010110,
110111,
010100,
110111,
110111,
010101,
010101,
010101,
110101,
110110,
110110,
110101,
010110,
010100,
010011,
110101,
010101,
110111,
010011,
111001,
011000,
010110,
011000,
010111,
010110,
110100,
111010,
111010,
010101,
010100,
010100,
010101,
110100,
010110,
110111,
110101,
110111,
110110,
110100,
011000,
011010,
010101,
010101,
110101,
010111,
110100,
110100,
011101,
110100,
111000,
110110,
010111,
010100,
011000,
010010,
110101,
011001,
010111,
010100,
110110,
011000,
010101,
010110,
110110,
011011,
110110,
110100,
110101,
111001,
110101,
110100,
110101,
010101,
110101,
110101,
110111,
110100,
010101,
110101,
010101,
110100,
011001,
010111,
010101,
111001,
010110,
110101,
110110,
111000,
010111,
010110,
010111,
010110,
010101,
111000,
010111,
010111,
110111,
010100,
110101,
011010,
010101,
011000,
010101,
110110,
010100,
011011,
011010,
010111,
110101,
011000,
010110,
110100,
110110,
110100,
010101,
010110,
110110,
110100,
111000,
011001,
110111,
111000,
010011,
010110,
011001,
010101,
110111,
110110,
011000,
110110,
111000,
010100,
010111,
111000,
110100,
110111,
010101,
110100,
010101,
010101,
010110,
110110,
111011,
110100,
011000,
010101,
110101,
110100,
110111,
111010,
111010,
010101,
111000,
111010,
011000,
110100,
010111,
010111,
111000,
010100,
111000,
110110,
010110,
010110,
111000,
110011,
010111,
010111,
110110,
011010,
010111,
110111,
011001,
110110,
010101,
110100,
010101,
110101,
110101,
111000,
110110,
010101,
111000,
110100,
111000,
011011,
110110,
010100,
110111,
111001,
110110,
110100,
010100,
010110,
110110,
111000,
010111,
111010,
110111,
010110,
110100,
111001,
010110,
111001,
110101,
111000,
010101,
010110,
110010,
010111,
111011,
010100,
110111,
110011,
110010,
110100,
111000,
110011,
110100,
110110,
111001,
110101,
010110,
010100,
110111,
010101,
010111,
110101,
110111,
111000,
010101,
110111,
111001,
110101,
010101,
110011,
110110,
011000,
111011,
110100,
110111,
010101,
111010,
110100,
110110,
010110,
010111,
110101,
110111,
110111,
111010,
110100,
011001,
010110,
111000,
010101,
110110,
011010,
010110,
011000,
110111,
011001,
010100,
010100,
010110,
010100,
110101,
010100,
010100,
010110,
110101,
110110,
111010,
010100,
010110,
110110,
110101,
011101,
010011,
010101,
010100,
010111,
010101,
010101,
110100,
111001,
110110,
111100,
110101,
111010,
010111,
011010,
110110,
010110,
010110,
010110,
010111,
110101,
110100,
110111,
010101,
010110,
110011,
011000,
110011,
110110,
110111,
011000,
110011,
110100,
011100,
110111,
010111,
010101,
010011,
110110,
110101,
110111,
010100,
111101,
010100,
010010,
110010,
110111,
110011,
110101,
011011,
011000,
010101,
110101,
110100,
010101,
010110,
111000,
110101,
010011,
011000,
110110,
110011,
010101,
110110,
010100,
011001,
110100,
011000,
010111,
010111,
010101,
010110,
010110,
010100,
011000,
010111,
110011,
110110,
110011,
011010,
011001,
010100,
011000,
111000,
011100,
110111,
110111,
011001,
010011,
010011,
010101,
010110,
110111,
110101,
110101,
011100,
010110,
110101,
110011,
010101,
110110,
110111,
110100,
111000,
010111,
111001,
010110,
111100,
110100,
011100,
111000,
110110,
010110,
010111,
110100,
010100,
011011,
010100,
110100,
011001,
011001,
011000,
011010,
110110,
010101,
110100,
110100,
110111,
010110,
111000,
110101,
011000,
011001,
010110,
010110,
011010,
110101,
010101,
010101,
010101,
010100,
010110,
010110,
110101,
010110,
010011,
110111,
010010,
010100,
011001,
110110,
010101,
110111,
111001,
010100,
010101,
110110,
110101,
010011,
110110,
110100,
110100,
110111,
111000,
110100,
010101,
010101,
110110,
111000,
110101,
111010,
010111,
010110,
110110,
010010,
010101,
110011,
110111,
110101,
111000,
111000,
110110,
110111,
111100,
110101,
110110,
110110,
010101,
110100,
010111,
110110,
011000,
010110,
010110,
010110,
010110,
010100,
010110,
010100,
110101,
010111,
010101,
010110,
110110,
111000,
011000,
110111,
110101,
010100,
111001,
010011,
010101,
011100,
010110,
110110,
110110,
110011,
010101,
110100,
011001,
011000,
111000,
110111,
110101,
111001,
010110,
011011,
110110,
110110,
011100,
110101,
010110,
110011,
010101,
110101,
110110,
110110,
110100,
010101,
111001,
110101,
011000,
011000,
011000,
010110,
010100,
110110,
110110,
110111,
111001,
111000,
110101,
111101,
111010,
010100,
110110,
011000,
111111,
110110,
010110,
010110,
010111,
110110,
110110,
010100,
010110,
111001,
011011,
011000,
011001,
110110,
110101,
010111,
011001,
010011,
010100,
110100,
011100,
010110,
110111,
011100,
010100,
110101,
111000,
010110,
010101,
010101,
010101,
110100,
011000,
110100,
110111,
111011,
110110,
111010,
110110,
110100,
011001,
110111,
011001,
111000,
010100,
110100,
110111,
110111,
010101,
010110,
110101,
110101,
110110,
111011,
111000,
110110,
010110,
011000,
010100,
010111,
010101,
011001,
011000,
111010,
011001,
110111,
110101,
110111,
010111,
110111,
011001,
110100,
110110,
110101,
110100,
010110,
110110,
010110,
010110,
011000,
111001,
111000,
110110,
110110,
010110,
111000,
110101,
011010,
010101,
111100,
111000,
110110,
110101,
110110,
110110,
111011,
010101,
110101,
110111,
110110,
010110,
110110,
111001,
110111,
110111,
010111,
110110,
010101,
011011,
110110,
011001,
010101,
010110,
110101,
011000,
011010,
010110,
110101,
110100,
010110,
011000,
011000,
110110,
011001,
010110,
110111,
111001,
110110,
010100,
110111,
010101,
010111,
110111,
010011,
010101,
110111,
110110,
110111,
110100,
110100,
111100,
011010,
110111,
110110,
010110,
110100,
010110,
110110,
110101,
011000,
111000,
110111,
010111,
011001,
010111,
010110,
110101,
010100,
010110,
110101,
010110,
011001,
110101,
111001,
011001,
010110,
110110,
111000,
010111,
010111,
111000,
111000,
111001,
010110,
110111,
110101,
111000,
011010,
110101,
010101,
110101,
111010,
110110,
010111,
010110,
010101,
111000,
010110,
111010,
111000,
011010,
110110,
010111,
010111,
010101,
110101,
110101,
010101,
010101,
010110,
010101,
010110,
011010,
010101,
111101,
111111,
011000,
010101,
110111,
010111,
110111,
010101,
110110,
110110,
010110,
011001,
110111,
110101,
011011,
110100,
110111,
010110,
111001,
011001,
011000,
010110,
111000,
110101,
011000,
011001,
010111,
010011,
110110,
110110,
110011,
110100,
110011,
111010,
110111,
110010,
110111,
011100,
010101,
010101,
110101,
010011,
111010,
010110,
010110,
011000,
111011,
010100,
111001,
111000,
010101,
110111,
110101,
011000,
010110,
111001,
110101,
111111,
010110,
010110,
111000,
011001,
111001,
010110,
011000,
111000,
110100,
111000,
010111,
010111,
111010,
110011,
010110,
011000,
010110,
111100,
011000,
111000,
110101,
010101,
010100,
111010,
110111,
010110,
010111,
010100,
111001,
110110,
011101,
110111,
111000,
011100,
010100,
110100,
011000,
010111,
010101,
011010,
110101,
110110,
011011,
011011,
110111,
011001,
110100,
111010,
111011,
110111,
010111,
110011,
111011,
110110,
111010,
110110,
011110,
110011,
010111,
010111,
110101,
110110,
111001,
110110,
011011,
110011,
110101,
010101,
111010,
110100,
110100,
010011,
111001,
010110,
110100,
011000,
010100,
010010,
010111,
011000,
110101,
111010,
010111,
110110,
011011,
110111,
010111,
110111,
110111,
010110,
110110,
110110,
010111,
011010,
010111,
110111,
110101,
011000,
111001,
011010,
111011,
010110,
111111,
110110,
010111,
110101,
110100,
111001,
010101,
110111,
011001,
110110,
011000,
110110,
111001,
010110,
010101,
110110,
110111,
011010,
010101,
111100,
110011,
010101,
010111,
011010,
110110,
110011,
110101,
111000,
010111,
110111,
010110,
010110,
110100,
010110,
011001,
010111,
110100,
010111,
110101,
111001,
010110,
010110,
111000,
010110,
111001,
111000,
110110,
011001,
110111,
111000,
011010,
010110,
110110,
010101,
010100,
010110,
011010,
011110,
010111,
010110,
010100,
110101,
011000,
110100,
010101,
111001,
010110,
111110,
110101,
110101,
110111,
111000,
010111,
011100,
111001,
110011,
110110,
110101,
010110,
110011,
010101,
010111,
111001,
110111,
011000,
110110,
111100,
110111,
111010,
110110,
011011,
111001,
110111,
011011,
011111,
011001,
011100,
011000,
111011,
010111,
011001,
010110,
010110,
111000,
110100,
011000,
010100,
010101,
011001,
111000,
011001,
010101,
110111,
110111,
011001,
010110,
111000,
111010,
010110,
110101,
110100,
111011,
110111,
010011,
010110,
010110,
010110,
111100,
110111,
110110,
111000,
010110,
010111,
110110,
110110,
111000,
110110,
111001,
111000,
110100,
111100,
111001,
111011,
110101,
110101,
010110,
110100,
110101,
010101,
010100,
111000,
011010,
111001,
110110,
110111,
110100,
011001,
011001,
010101,
110100,
011000,
110110,
011101,
110110,
111001,
110110,
010110,
111000,
011011,
111011,
111001,
010111,
010101,
110100,
110111,
110101,
011000,
011000,
111001,
010100,
010101,
010100,
110110,
010101,
110110,
010110,
010110,
011000,
011001,
011000,
011000,
111011,
110111,
011001,
110110,
111000,
111000,
110101,
111001,
111000,
011001,
110110,
111000,
110100,
110101,
110101,
110100,
111000,
110110,
010110,
110110,
111000,
111000,
011010,
010100,
010111,
010100,
111001,
010110,
010101,
110100,
110111,
110100,
010011,
011000,
010110,
011000,
010101,
010101,
110110,
110110,
011000,
010101,
011011,
111011,
011000,
010110,
011111,
010110,
010110,
010100,
110101,
010111,
111001,
010100,
010111,
010011,
110100,
110100,
110100,
010100,
110111,
011000,
011010,
010101,
111001,
110101,
010101,
011000,
010100,
010110,
010011,
110111,
010101,
010100,
111101,
010111,
110011,
110011,
010100,
110100,
010100,
010111,
110111,
010101,
011010,
110100,
110011,
010100,
110101,
110010,
111010,
010111,
111111,
110101,
111001,
110100,
010100,
111000,
110101,
010110,
011000,
110110,
110011,
010111,
010100,
110101,
010101,
111100,
110110,
011000,
110110,
110101,
110111,
011001,
010101,
010100,
111001,
010011,
110100,
010100,
110101,
011001,
111010,
110110,
010101,
110111,
110100,
010111,
110111,
010100,
010101,
010100,
110110,
010101,
110101,
010100,
010011,
111001,
011000,
010110,
110111,
011000,
010011,
111000,
011000,
110111,
110011,
011000,
110101,
110101,
010110,
010100,
010011,
010111,
011011,
110101,
110110,
110110,
110011,
110110,
010010,
110110,
010110,
110100,
011000,
010110,
110110,
010111,
010101,
110101,
110111,
010111,
111001,
110110,
010110,
110111,
110101,
110011,
010110,
011000,
110100,
111011,
010101,
110101,
010101,
110111,
010101,
110110,
011001,
111001,
111000,
110101,
010110,
110111,
011000,
010101,
110100,
110111,
010110,
010100,
111010,
111001,
110101,
010100,
110011,
110100,
110011,
110110,
010100,
110110,
010111,
110111,
010100,
010011,
011001,
110101,
111001,
010111,
110111,
010110,
111010,
010101,
010111,
010101,
110101,
111000,
011000,
010110,
010111,
011000,
011100,
011000,
110110,
010110,
110110,
110101,
110100,
110111,
111111,
110111,
110111,
011010,
010111,
111000,
110111,
110011,
010101,
010110,
010101,
111001,
110110,
011000,
010100,
010100,
110101,
110101,
111000,
110110,
110101,
010100,
010101,
010100,
110011,
110101,
110111,
010111,
110100,
010111,
110100,
010101,
111010,
110111,
110110,
110011,
110100,
010101,
010100,
010101,
011001,
011001,
010110,
010101,
110111,
010100,
111000,
110110,
110100,
110101,
011000,
010110,
010110,
010100,
010100,
110111,
010101,
110110,
110101,
110111,
110111,
110110,
010101,
010111,
110001,
010110,
110110,
010100,
011000,
111000,
110111,
010011,
110110,
010101,
110101,
111111,
110111,
010111,
010110,
111011,
111110,
110011,
110010,
111000,
110110,
110111,
011001,
110101,
110101,
110111,
110101,
111001,
111001,
011101,
110100,
010010,
010100,
110100,
011011,
110101,
011001,
111000,
011010,
110110,
110100,
110111,
110111,
010100,
110011,
110110,
110110,
110101,
110101,
010101,
110101,
110101,
110101,
010101,
011010,
010101,
110101,
011011,
010101,
110101,
111001,
111010,
010101,
110101,
010100,
111011,
110011,
010101,
011010,
010110,
111000,
010101,
110101,
010111,
110101,
010100,
110100,
010101,
011111,
010100,
110111,
110011,
011101,
110101,
110111,
010111,
111001,
010011,
110101,
110101,
010111,
110100,
111000,
010101,
110110,
110011,
010110,
010100,
010101,
110101,
110010,
110100,
010101,
110110,
010110,
110110,
010101,
110011,
011010,
010100,
110111,
110101,
111000,
110011,
110101,
110011,
011001,
110110,
110011,
010101,
110111,
010101,
010011,
010110,
010101,
111000,
110111,
111101,
110101,
010111,
011100,
110011,
010011,
110110,
011001,
010101,
110111,
010110,
010111,
110111,
010111,
111001,
011010,
010111,
110010,
010110,
110101,
110111,
111000,
010011,
011010,
110100,
010101,
010110,
110111,
110011,
011010,
011110,
110110,
110110,
110110,
011000,
111000,
010110,
111010,
111010,
010101,
010111,
011011,
110111,
110110,
011000,
111001,
010110,
010100,
110011,
010100,
010110,
010101,
011000,
110100,
010110,
110110,
010101,
010011,
011010,
110110,
111001,
110101,
110110,
111001,
011011,
110101,
110111,
111000,
010101,
110111,
110111,
111000,
110110,
111010,
110100,
110110,
010101,
010101,
010111,
110110,
010100,
110101,
010110,
010100,
010100,
010101,
010101,
010011,
010111,
111000,
010110,
010101,
110110,
010110,
110111,
010010,
010101,
010110,
110111,
111001,
010101,
110111,
011001,
010011,
110010,
010011,
010101,
111000,
110101,
011010,
010100,
111001,
110111,
010101,
011000,
111001,
010111,
010100,
010110,
010100,
110111,
010110,
110100,
011000,
110110,
110101,
010101,
010110,
111010,
010110,
010101,
011011,
010101,
110110,
110110,
010100,
110101,
110011,
010110,
011001,
111100,
110111,
011000,
010110,
010110,
010100,
010101,
111001,
110100,
110100,
010101,
111000,
010101,
010011,
010111,
110100,
010100,
111010,
010111,
110111,
011011,
011010,
010111,
110111,
110101,
111011,
110100,
111010,
111001,
110100,
011000,
111011,
011000,
010111,
011000,
010100,
110110,
110111,
010110,
110101,
010111,
110110,
011010,
111010,
010110,
010111,
010101,
110111,
110110,
010101,
010110,
010111,
010110,
110111,
010111,
110100,
111000,
010100,
110110,
010101,
010110,
110110,
111101,
110101,
110100,
010101,
110100,
011100,
010110,
110110,
011000,
110111,
010101,
110101,
010111,
111001,
110101,
110011,
110110,
111000,
110111,
010110,
010111,
110110,
110101,
110111,
010100,
010111,
010110,
010110,
010110,
010101,
110110,
010011,
010101,
110011,
010110,
010110,
110101,
110111,
010101,
110111,
111000,
010100,
110101,
110110,
110111,
110110,
110100,
110100,
110101,
111000,
111000,
110011,
011011,
010011,
110110,
011010,
110101,
110100,
110100,
110100,
110100,
110100,
111000,
011010,
110101,
010111,
010101,
110110,
110111,
110101,
111001,
111000,
110100,
110010,
110101,
010101,
010111,
010011,
110110,
111001,
110100,
110101,
111001,
110101,
010100,
111011,
010100,
110110,
110101,
110101,
010110,
110101,
010110,
110011,
110101,
110111,
011000,
010111,
110111,
110111,
111010,
111000,
110011,
110110,
110110,
110110,
011011,
110110,
110101,
110101,
011100,
111001,
010111,
011001,
110101,
010011,
110100,
010100,
010010,
010111,
110100,
110010,
110101,
110110,
010110,
111000,
110101,
011010,
110101,
111000,
011001,
011001,
110111,
111000,
110101,
010111,
110110,
110110,
110100,
110101,
010101,
010101,
110110,
111010,
111100,
111010,
010101,
110100,
010101,
110101,
111001,
110101,
110101,
011000,
011001,
010110,
110101,
110101,
010110,
110100,
110110,
110110,
010111,
110101,
110101,
110101,
110111,
110110,
110111,
110111,
111101,
011001,
110100,
111001,
110101,
110101,
011010,
010101,
011000,
110110,
110101,
111000,
010110,
110111,
010101,
110101,
010100,
110110,
011000,
110100,
010110,
010101,
110101,
010011,
110101,
110100,
011001,
110111,
111000,
011010,
111001,
110101,
010101,
011000,
110110,
111001,
110111,
110101,
110101,
110110,
011011,
110100,
110110,
110101,
010101,
010101,
010111,
010100,
010101,
111000,
110101,
010111,
111000,
010110,
010100,
010100,
010101,
010101,
010110,
111010,
010101,
110100,
110111,
110110,
110111,
010101,
111001,
010101,
110101,
110110,
011000,
110101,
110110,
010111,
110110,
010101,
110111,
110011,
010101,
010110,
010111,
010100,
010100,
011000,
010110,
010111,
110101,
011000,
110110,
110100,
010100,
111001,
010100,
010100,
110110,
110101,
111011,
110110,
111000,
111010,
010111,
110101,
010111,
110101,
110011,
010101,
010111,
010100,
011011,
110110,
110101,
010110,
010110,
111001,
110011,
110110,
010011,
111001,
010101,
010111,
010110,
010101,
010111,
110111,
010101,
010111,
110110,
010110,
110110,
110111,
010101,
010101,
010111,
010110,
010011,
111001,
111010,
011001,
010100,
110110,
010101,
110110,
010111,
110101,
010110,
111010,
111001,
010100,
010110,
110100,
110100,
010100,
111000,
110111,
011011,
110111,
111000,
010100,
110111,
010111,
010101,
010101,
110100,
010111,
110100,
110111,
110101,
010101,
010110,
111111,
110111,
110100,
111000,
110110,
111011,
110110,
010100,
111100,
010110,
110101,
010100,
110100,
010101,
111000,
010111,
110100,
010110,
010100,
111000,
011000,
110111,
010111,
111000,
110110,
011000,
110100,
010110,
111111,
010111,
110110,
111000,
110101,
010101,
110101,
010100,
010111,
110110,
011000,
111000,
110110,
110100,
010100,
010011,
111000,
011000,
110101,
010101,
010101,
110110,
010101,
111011,
010100,
010110,
111000,
010101,
110111,
111000,
010100,
010100,
010101,
110101,
010101,
010111,
010110,
111000,
010101,
111010,
010111,
110101,
111001,
110101,
110110,
010110,
010110,
010100,
010111,
010111,
010101,
010101,
110111,
010100,
010111,
010110,
111110,
010111,
111000,
010111,
010111,
010111,
111010,
010111,
010100,
010110,
110101,
010111,
011001,
110111,
011101,
110100,
010101,
010101,
111111,
010101,
010111,
111010,
010110,
010100,
110101,
110100,
011000,
010110,
111101,
010110,
110100,
111000,
011001,
010111,
010111,
110111,
010101,
111010,
010110,
110110,
110111,
110101,
110101,
110111,
110110,
110110,
110101,
010110,
010100,
111000,
010101,
110101,
010100,
010110,
010101,
111001,
010110,
011010,
011110,
110111,
011001,
010111,
011000,
110101,
010111,
010110,
110110,
110110,
110110,
010110,
010111,
110111,
110111,
111110,
111000,
010011,
110111,
110111,
010110,
111000,
010101,
011010,
010110,
010111,
010111,
110110,
110110,
110111,
011011,
011011,
110111,
110101,
010110,
011010,
010100,
110111,
011001,
110110,
110101,
110110,
111110,
111001,
111001,
110111,
010100,
010111,
110110,
111001,
110011,
010101,
110110,
010110,
111100,
010110,
111000,
110111,
110111,
110101,
110110,
111001,
111001,
011010,
110101,
111101,
110101,
110100,
010110,
010110,
110111,
010101,
011011,
010111,
010101,
010111,
110110,
110110,
011010,
111001,
110111,
010110,
010111,
010101,
010111,
110110,
010100,
010110,
110110,
010110,
010100,
010101,
010101,
110111,
110101,
110110,
010111,
010111,
110100,
010110,
010101,
110101,
011001,
110110,
111001,
110110,
011010,
111001,
111010,
111010,
011000,
110101,
011100,
011000,
010100,
110110,
010100,
111000,
110110,
011011,
010110,
110101,
110110,
110111,
010111,
110101,
010100,
110110,
010101,
011001,
011000,
010101,
110101,
011001,
010111,
110100,
110101,
110110,
111010,
110111,
010100,
110101,
110101,
110101,
111011,
110011,
010100,
011011,
011110,
010101,
110100,
010100,
111000,
010110,
110110,
011010,
110111,
010101,
010111,
010100,
110111,
010100,
010100,
011000,
111001,
110111,
110111,
110100,
010101,
011001,
111001,
010111,
110101,
110110,
110011,
110110,
111000,
110100,
010110,
010101,
010100,
110100,
110110,
111111,
110101,
010100,
010101,
010111,
110101,
010110,
010110,
010100,
110110,
110111,
011011,
110110,
010101,
111100,
111000,
110110,
010101,
010110,
110101,
010011,
010101,
111000,
010100,
110111,
110111,
010110,
011000,
010011,
110110,
010100,
110100,
110101,
010011,
011001,
110110,
111000,
110101,
111011,
010110,
110100,
111010,
010110,
010101,
010111,
011011,
010110,
011000,
010110,
110110,
110110,
010101,
110110,
011000,
010111,
110100,
011000,
110111,
111010,
110101,
111000,
110100,
110101,
110110,
011001,
010110,
010100,
110111,
110101,
110100,
010100,
111000,
010111,
110100,
011100,
111010,
010110,
010111,
110101,
010101,
110110,
110110,
110110,
110100,
110111,
110101,
110101,
011000,
110100,
110101,
110110,
110100,
010101,
110101,
110111,
110101,
010100,
010011,
111010,
010101,
110100,
110110,
011000,
110101,
110110,
011011,
110111,
010100,
110011,
011010,
110101,
111000,
011000,
110011,
110101,
110101,
111001,
110100,
110100,
110110,
010101,
010101,
010110,
010100,
110101,
010100,
110110,
110110,
010100,
110101,
110101,
010110,
010110,
111000,
111000,
111110,
110111,
010111,
011011,
010011,
110100,
010100,
111000,
011001,
010111,
110100,
010101,
110110,
110110,
110110,
010110,
010101,
110111,
010100,
110110,
110010,
010100,
010110,
110101,
111000,
110100,
110101,
011001,
010110,
011001,
010100,
010100,
010111,
110100,
110110,
110011,
010110,
110110,
011010,
110110,
011000,
011001,
110111,
010101,
010110,
110110,
110110,
010100,
010011,
110100,
111110,
010100,
110101,
110110,
010101,
010100,
110011,
111000,
110101,
110111,
010111,
110100,
110101,
010101,
110111,
010100,
110101,
110101,
111001,
110110,
110111,
010111,
110111,
110110,
010101,
110111,
010111,
111000,
111001,
010101,
110111,
111010,
110101,
010110,
111001,
110011,
011000,
010101,
110101,
010011,
010101,
010101,
110101,
010111,
010110,
011000,
011011,
010111,
010100,
110101,
110111,
110101,
010110,
110010,
110100,
110100,
010100,
111010,
110111,
111001,
010111,
010101,
110011,
110111,
010110,
010101,
010110,
110110,
010110,
110110,
111001,
110111,
010101,
010101,
011010,
110111,
010111,
110011,
111011,
010111,
010111,
010100,
110110,
011001,
110100,
111000,
111001,
011000,
010101,
010101,
011001,
010100,
110110,
110101,
010110,
110110,
010100,
010110,
110101,
110100,
110110,
011001,
011001,
010100,
011010,
110110,
110101,
110101,
110101,
011010,
010111,
010111,
110111,
010101,
010011,
110100,
110110,
010100,
010110,
010100,
010101,
011011,
110010,
010111,
110111,
010110,
011011,
010111,
110101,
010111,
110110,
010110,
110110,
010101,
010101,
010011,
010111,
010110,
110101,
110100,
110111,
111000,
110110,
110101,
010111,
110111,
110101,
110111,
010100,
110111,
010110,
010110,
110100,
110011,
010101,
010110,
010101,
111111,
110101,
110011,
010101,
010111,
010111,
110110,
011000,
110100,
010100,
110111,
010111,
010011,
011000,
010111,
010110,
111000,
110111,
011010,
010111,
110101,
011010,
111100,
010100,
010110,
110011,
010111,
010111,
110011,
010100,
110111,
011000,
010100,
010110,
110101,
110110,
111001,
111000,
010101,
010111,
110101,
110110,
010100,
110011,
110011,
010100,
010101,
010101,
010110,
110011,
010101,
010101,
010111,
111000,
111100,
011000,
011000,
110101,
110101,
110111,
111100,
010100,
010111,
110110,
111001,
010111,
111001,
110011,
110011,
010101,
011001,
011001,
111000,
111001,
110101,
110100,
010111,
110100,
010101,
010111,
110101,
110110,
110101,
010101,
110101,
110101,
111000,
110100,
110110,
110100,
010110,
010101,
110110,
010110,
010111,
110011,
010011,
110010,
111000,
010100,
010101,
110111,
110100,
110101,
111000,
111000,
010111,
011001,
011000,
110010,
110101,
111010,
110101,
110011,
110110,
010111,
110110,
110110,
011001,
110110,
010110,
011000,
111000,
011010,
110101,
110110,
010101,
110100,
110110,
010101,
111001,
010101,
111010,
010101,
110110,
010111,
110111,
110111,
011001,
110101,
110100,
110101,
110110,
010110,
010100,
010111,
110101,
110101,
011000,
110011,
111001,
010111,
110110,
110010,
010111,
010111,
110100,
110110,
010110,
010100,
010110,
111000,
011000,
010101,
111010,
110011,
111000,
110101,
110110,
010100,
111010,
111010,
110100,
110101,
010100,
111001,
110011,
110100,
010011,
010101,
011010,
110101,
111000,
010110,
010101,
110101,
110100,
010011,
011011,
010011,
111001,
010100,
010100,
111001,
010111,
010100,
010101,
010111,
110111,
110101,
010101,
011010,
110100,
010110,
010110,
110100,
111000,
110110,
111100,
010100,
110111,
011001,
111000,
110101,
110100,
010100,
010011,
010111,
111011,
110111,
010110,
110111,
110100,
010101,
010100,
010001,
010100,
010010,
110101,
110111,
110110,
010110,
110100,
011001,
111000,
011001,
010110,
010110,
010110,
110011,
111010,
110110,
010101,
010101,
110101,
110110,
111000,
111100,
011000,
011001,
110101,
110100,
011001,
110010,
111000,
110101,
110101,
110110,
110101,
110101,
110111,
110101,
011000,
110110,
010110,
110101,
110101,
110011,
110111,
111000,
110111,
010101,
010101,
110101,
011001,
010110,
010110,
111001,
010011,
010101,
110101,
011000,
110101,
010010,
010111,
110111,
110101,
010011,
011000,
010010,
110111,
110100,
110010,
110111,
010101,
010100,
010010,
110110,
010011,
111000,
110101,
010111,
111000,
010110,
011010,
110110,
110110,
010111,
110100,
110100,
011000,
110110,
110101,
010110,
011000,
110110,
110100,
010100,
111100,
010110,
011010,
010110,
010111,
010101,
110110,
110101,
010101,
010101,
010111,
011100,
011010,
111101,
110101,
110101,
010101,
110110,
110111,
110111,
010111,
011001,
110011,
110100,
010011,
010100,
010100,
110111,
111011,
110100,
111001,
110110,
010110,
110100,
110101,
110101,
011000,
010101,
010110,
110101,
110111,
111001,
010101,
010101,
010101,
010110,
011010,
110110,
111010,
110111,
010111,
110100,
111010,
011010,
111011,
010110,
011000,
011010,
111001,
110101,
110100,
110101,
010101,
010101,
011000,
010011,
110110,
010100,
110111,
010100,
110100,
111000,
110101,
010101,
111001,
110111,
110100,
110011,
111000,
011001,
110111,
010110,
010111,
010110,
111001,
110110,
111101,
110011,
110101,
011000,
011001,
010110,
010110,
011011,
110110,
010110,
010111,
011011,
110011,
010100,
010110,
110101,
010101,
110101,
010100,
110111,
110101,
011000,
111010,
010100,
110110,
111010,
110110,
011000,
110011,
110110,
110111,
110101,
110010,
110110,
111100,
110110,
011011,
110011,
010110,
110011,
010100,
010111,
111000,
010110,
110101,
010101,
011000,
011001,
010101,
110100,
010110,
110101,
010101,
010101,
010110,
010110,
110110,
010101,
011010,
010101,
110111,
011110,
011001,
111000,
110100,
110110,
110111,
110101,
110100,
110100,
010111,
010110,
111000,
110101,
110101,
010101,
110011,
011000,
110111,
010101,
010100,
110111,
110110,
110100,
010100,
110100,
011110,
010101,
110101,
110101,
110101,
010101,
011000,
010100,
110100,
110101,
111001,
010110,
010111,
110101,
110110,
011000,
011011,
110101,
110110,
110111,
010101,
110110,
010111,
010010,
010110,
110100,
010101,
110101,
110111,
110101,
011001,
110100,
110111,
010110,
111000,
110110,
011001,
111001,
010111,
010111,
010110,
110111,
010100,
110101,
011001,
011001,
010110,
111000,
110101,
011001,
110101,
010101,
010101,
110110,
010101,
011011,
010110,
010101,
010110,
011000,
111010,
110101,
111000,
010101,
110100,
011111,
010100,
110101,
010110,
010101,
110101,
010101,
010110,
110101,
110101,
110110,
011001,
111010,
010100,
110101,
010111,
110100,
111010,
110111,
010110,
110110,
010110,
110100,
110011,
011001,
110111,
111010,
110101,
010100,
110101,
110110,
110101,
110101,
110101,
110101,
110101,
110110,
110111,
110111,
010110,
010100,
110101,
010111,
010110,
111000,
011000,
110110,
010110,
111000,
110111,
110100,
111011,
111011,
010110,
010110,
011000,
110110,
111001,
110100,
111100,
010101,
011000,
010101,
011001,
010101,
011001,
011000,
010101,
011000,
110101,
010101,
110101,
010111,
110110,
010110,
111001,
110101,
010101,
010101,
011000,
110111,
110111,
010101,
011000,
010011,
110100,
010111,
110100,
110100,
110101,
010110,
110101,
111010,
111011,
110100,
010110,
010100,
011101,
010110,
110110,
010110,
110100,
011000,
111000,
110101,
110111,
110110,
010101,
111100,
110110,
011001,
011000,
010101,
111000,
111000,
010100,
010110,
111001,
111110,
110100,
010110,
110010,
011010,
010111,
010110,
110110,
110111,
111111,
110101,
111010,
110110,
010110,
011001,
010110,
111000,
110111,
110100,
110011,
110101,
110110,
011001,
010110,
110011,
110010,
110101,
110110,
010110,
110111,
011000,
111001,
011100,
110111,
111010,
111010,
011010,
011010,
110111,
110110,
110101,
010110,
110101,
010111,
010100,
010111,
110110,
010111,
111100,
010111,
111001,
110110,
110011,
110101,
110110,
010101,
111000,
110110,
011000,
010101,
011001,
110110,
110100,
110111,
010111,
011011,
110100,
110101,
110101,
010111,
110110,
110101,
010111,
011010,
110110,
110100,
110111,
011000,
110100,
110100,
110100,
111001,
110110,
010111,
011001,
110101,
010110,
110111,
010110,
010110,
011011,
110101,
110100,
110100,
011100,
010101,
010100,
111000,
110110,
011001,
010111,
010100,
011000,
010011,
011010,
010101,
110100,
011000,
111001,
010101,
010110,
110111,
010110,
011001,
010110,
010110,
010101,
011100,
010111,
110101,
110111,
110111,
011111,
110110,
011000,
010011,
110110,
110110,
010110,
010101,
011010,
110110,
010101,
110101,
110110,
111001,
110110,
111000,
110101,
110101,
011001,
111101,
110100,
111000,
110111,
110110,
110101,
111010,
010110,
111001,
010101,
010111,
010110,
011010,
111000,
110110,
110111,
010101,
011000,
110110,
110111,
111001,
111001,
010101,
010110,
111010,
110100,
010101,
010101,
111011,
011011,
111001,
010101,
011100,
010110,
010111,
110101,
011000,
110100,
110101,
010111,
110110,
010111,
010110,
110101,
110100,
111111,
111010,
010110,
010110,
110110,
110101,
010101,
111001,
110101,
111000,
010111,
010111,
110011,
010110,
010100,
110110,
110100,
110100,
010111,
110111,
111000,
011010,
111001,
010111,
110101,
111000,
011000,
111000,
110101,
110101,
110111,
010111,
110111,
110111,
010110,
110100,
110110,
010111,
010110,
110101,
010101,
110110,
110111,
111000,
010110,
011010,
010100,
011000,
110110,
010101,
010110,
011111,
110110,
011010,
010100,
011110,
011000,
110110,
010101,
110111,
111001,
110100,
111010,
010100,
010111,
010100,
010100,
110100,
111000,
010110,
110110,
110101,
110111,
110111,
110101,
010110,
010101,
110101,
010111,
010111,
110100,
010110,
011010,
010100,
110101,
010100,
010110,
111010,
111011,
110110,
110110,
111010,
111001,
011111,
111011,
010111,
010110,
110110,
010100,
010101,
010110,
011000,
110111,
111100,
110101,
010101,
010101,
010101,
110110,
110111,
110101,
110111,
010011,
011001,
011000,
110111,
110100,
110111,
110100,
111000,
010011,
110110,
010110,
011000,
110110,
010100,
111000,
110100,
110101,
010100,
110110,
010110,
010110,
111001,
110111,
110101,
110101,
110101,
110111,
110011,
110110,
110101,
010110,
010110,
010101,
010111,
010110,
110110,
111000,
110111,
110111,
111101,
110101,
111100,
111001,
011000,
010011,
010111,
010110,
110100,
011001,
110111,
110100,
110111,
010110,
010110,
110100,
110010,
110101,
110100,
011011,
110110,
010100,
010111,
110110,
010101,
011011,
110100,
010111,
110100,
111011,
110101,
011000,
010111,
110110,
010011,
111001,
010110,
110110,
111110,
010110,
011000,
010111,
110011,
010111,
110110,
010100,
110100,
111011,
010100,
110111,
010111,
110101,
110101,
110101,
111000,
010110,
010110,
010100,
110100,
010110,
010110,
010011,
110110,
110110,
110101,
110100,
111010,
111110,
010100,
110111,
111001,
010110,
110111,
010011,
010101,
110101,
010011,
110100,
010100,
010101,
011010,
011000,
110100,
110101,
010101,
110100,
010100,
111011,
010110,
011100,
111010,
110101,
010100,
110100,
110101,
011111,
010110,
110110,
110110,
110101,
110110,
110100,
011110,
110100,
010100,
110100,
010101,
011011,
110101,
010011,
010100,
010100,
111011,
110111,
111001,
110011,
110101,
111001,
110100,
110101,
110111,
010101,
111000,
010110,
110100,
010011,
010111,
011000,
010110,
010111,
110100,
010101,
010111,
010100,
010101,
010111,
010110,
110110,
110101,
110100,
110011,
110011,
111001,
110100,
010100,
110110,
010011,
010100,
010101,
110111,
110110,
110110,
011000,
011000,
010111,
011001,
010010,
010011,
010100,
110100,
110101,
010100,
010110,
111010,
010110,
011001,
110100,
111000,
110011,
111001,
010101,
111001,
010101,
010101,
110110,
010111,
010101,
010101,
010111,
110101,
111000,
110110,
110101,
010111,
110110,
110110,
010110,
110100,
010100,
110011,
111010,
110111,
010110,
110011,
011001,
110100,
111011,
110110,
110100,
110100,
110111,
010111,
110101,
110011,
010110,
010011,
010101,
111001,
111001,
110100,
010010,
010111,
010110,
010100,
110101,
110110,
110111,
110110,
111001,
110101,
110110,
010101,
010100,
110100,
010101,
010110,
110101,
111001,
010110,
010110,
010011,
110111,
010110,
110110,
011001,
110011,
010101,
010100,
010111,
110101,
011000,
010011,
111000,
011000,
010110,
010111,
010011,
110111,
110111,
010110,
110101,
010111,
111011,
111011,
010110,
011000,
011000,
111000,
110111,
110111,
110101,
110110,
111000,
011000,
010101,
111000,
111000,
110100,
010100,
011000,
110111,
110101,
110110,
011000,
110101,
110110,
010101,
011000,
010101,
110100,
010110,
010111,
110101,
110110,
010101,
110100,
010101,
010101,
010101,
110100,
010111,
010111,
010111,
011010,
111101,
010101,
110101,
010110,
110100,
110101,
110111,
110111,
010110,
110101,
110110,
010100,
110011,
110101,
010101,
011010,
110011,
111000,
110101,
010110,
110101,
111001,
010100,
110111,
110011,
110100,
110101,
110111,
110101,
010100,
010011,
010110,
010110,
011000,
011001,
010110,
110100,
110111,
010101,
111001,
110111,
110111,
110110,
110100,
110111,
010100,
110010,
110111,
011001,
010110,
111000,
110111,
010100,
110100,
011011,
010100,
010011,
110100,
110111,
011000,
111000,
110110,
010111,
110110,
110010,
110111,
010110,
110111,
010111,
110110,
110111,
110100,
110110,
010011,
010101,
010100,
010100,
110100,
110101,
010100,
010111,
010100,
110110,
010110,
010100,
010100,
111010,
110100,
010111,
110111,
110111,
010100,
110101,
011001,
111001,
010110,
110110,
011001,
010110,
011000,
011010,
010011,
110100,
110110,
111000,
110100,
111010,
110101,
010101,
010101,
010011,
110100,
110100,
110100,
010110,
110101,
110111,
110101,
010101,
110100,
010101,
010101,
010111,
110011,
110100,
110100,
011010,
110100,
011001,
010110,
110100,
110101,
110101,
010110,
111010,
010110,
110100,
011010,
110110,
110110,
010111,
110011,
010100,
010101,
111011,
010110,
110110,
110011,
010111,
110010,
110111,
011000,
110101,
110101,
010111,
010011,
010011,
110110,
010101,
010110,
010110,
111001,
011001,
110011,
110101,
111010,
110111,
110101,
110101,
110110,
010111,
010101,
110110,
110010,
010101,
010100,
010110,
110110,
010110,
110011,
010100,
010101,
111000,
110110,
111000,
110100,
010101,
011000,
110101,
111001,
010100,
010101,
010100,
110111,
110101,
010100,
110101,
111000,
010111,
010101,
011101,
010111,
110111,
110101,
010110,
110100,
011010,
010110,
010101,
110111,
110100,
110100,
010011,
110011,
011000,
110100,
010100,
110110,
010011,
010101,
110101,
110100,
010110,
110011,
110100,
111001,
010110,
010110,
111000,
010110,
110100,
010111,
010101,
010100,
110111,
110101,
110101,
011011,
110100,
010101,
110101,
010011,
010011,
010111,
010110,
110111,
011010,
010011,
010100,
010011,
010100,
011011,
011011,
110101,
110110,
010011,
110100,
110110,
011001,
111001,
110101,
010111,
010101,
010011,
110101,
110010,
011000,
010100,
110101,
010101,
111010,
110101,
110110,
010011,
110100,
010101,
110110,
011001,
110101,
010010,
010110,
110101,
110011,
110100,
010110,
111000,
010111,
110111,
010011,
011000,
110110,
010101,
110100,
010011,
110101,
010101,
110111,
110101,
111001,
010110,
011000,
110111,
111000,
010101,
011011,
010100,
011000,
110101,
011011,
011010,
011001,
110011,
010100,
110110,
010011,
010111,
010101,
010111,
110100,
011001,
010100,
110110,
110101,
011011,
111100,
110101,
010111,
010110,
110011,
110011,
010111,
110100,
110100,
010100,
011000,
010110,
110110,
111100,
011101,
010100,
110100,
110010,
010001,
110101,
010100,
110101,
110111,
010101,
010101,
010111,
110111,
010101,
110010,
111000,
010010,
110111,
111001,
110101,
010110,
111101,
011010,
010110,
010110,
111001,
010111,
010011,
111001,
110100,
010100,
010110,
011001,
110110,
010110,
010010,
111101,
110101,
010101,
110101,
010100,
010101,
110101,
010110,
110101,
010111,
110111,
010110,
010111,
110100,
010101,
011001,
010101,
110101,
111010,
110111,
010101,
010111,
111001,
111010,
110110,
010111,
010111,
110100,
011000,
010110,
111000,
011001,
110111,
110011,
010110,
110110,
110110,
010101,
110111,
111010,
010101,
011001,
110100,
110111,
110110,
011101,
011001,
010100,
010100,
010100,
010101,
010110,
010101,
110101,
110100,
110101,
011001,
110110,
111000,
010110,
111010,
011000,
011000,
110100,
010110,
010011,
111000,
010101,
110111,
111101,
011000,
011000,
110100,
111000,
110111,
010100,
010100,
011011,
110100,
010110,
010100,
110101,
110100,
110100,
110111,
110110,
110101,
110100,
110101,
110111,
110100,
011101,
011001,
110100,
010110,
011011,
010101,
011000,
111001,
010101,
110100,
010101,
010101,
010111,
010100,
110101,
010101,
011001,
110110,
010110,
110110,
010101,
110111,
110100,
010111,
110110,
011101,
110100,
010100,
011001,
010101,
110101,
110110,
110110,
010100,
110110,
110111,
010110,
110111,
110101,
111000,
111000,
111000,
110101,
110110,
110011,
011000,
010101,
010111,
111001,
110110,
011001,
010110,
110101,
111000,
111001,
010110,
010110,
010110,
110101,
010101,
011001,
111011,
110111,
010011,
110101,
011000,
010101,
110101,
110110,
110111,
111010,
011000,
010110,
110101,
010100,
111001,
110101,
110110,
011111,
010101,
010111,
011000,
111000,
110110,
010111,
010101,
111001,
110111,
011111,
010101,
010110,
110100,
110111,
011100,
110101,
110101,
110011,
111100,
111001,
110101,
010110,
010110,
110111,
111011,
110111,
110100,
010100,
011000,
111101,
110101,
110011,
010110,
010111,
110110,
111010,
111011,
010110,
010100,
110110,
010110,
110110,
110111,
110100,
110111,
010110,
111001,
110011,
010111,
010111,
110100,
110100,
010101,
010110,
010101,
111111,
110110,
110110,
111001,
010110,
010010,
010100,
011011,
110100,
111001,
110010,
011011,
110101,
010111,
110100,
110111,
010111,
110111,
011001,
010101,
110110,
010110,
010101,
011001,
010101,
110100,
010100,
110110,
010111,
010100,
010100,
110111,
011001,
110110,
110111,
111010,
010110,
010110,
011001,
010111,
110100,
010101,
110110,
111011,
110101,
010101,
110110,
011010,
011100,
011100,
110110,
110110,
110110,
010110,
010111,
011000,
010110,
011001,
010110,
111001,
110111,
110110,
010101,
010110,
010101,
010011,
110111,
010110,
110100,
111101,
111000,
010011,
010111,
110011,
010110,
011000,
110101,
111001,
111001,
110101,
110101,
010111,
110111,
110100,
110110,
111000,
010101,
110111,
110111,
010111,
110110,
110111,
110111,
111000,
110111,
110010,
110110,
110110,
110111,
010110,
110110,
010110,
110101,
011010,
011101,
110011,
111000,
110100,
010111,
111011,
010101,
010110,
111001,
110110,
010110,
010110,
110111,
010101,
010110,
010110,
011001,
110110,
110011,
011001,
110011,
010110,
010111,
110110,
110110,
110110,
010111,
111101,
110110,
110110,
111010,
010111,
110101,
110110,
110101,
110101,
111000,
110111,
010110,
010101,
010111,
110101,
110110,
110100,
110011,
011001,
010111,
010111,
110111,
111000,
110110,
111000,
010101,
110111,
111000,
110111,
110101,
010111,
110101,
011000,
010101,
110101,
110100,
111010,
010110,
011110,
110110,
110110,
110101,
110101,
010110,
111001,
110111,
110101,
010101,
011000,
111000,
011001,
010111,
111001,
010100,
110101,
110101,
110111,
010111,
010101,
110111,
110111,
111011,
010101,
111010,
110100,
110110,
110111,
010101,
110110,
110111,
010111,
010100,
110111,
111000,
010101,
110110,
011110,
111000,
010101,
010111,
010110,
110111,
011011,
110111,
110111,
111000,
011000,
110101,
111001,
011010,
010101,
010101,
010101,
010111,
110101,
010110,
110110,
110110,
110111,
010101,
010110,
110101,
010111,
011100,
110111,
010011,
010111,
110111,
010101,
011100,
010110,
110101,
010101,
111000,
110111,
011000,
011000,
110101,
011001,
110111,
010110,
010111,
111000,
110110,
110101,
010111,
010110,
011000,
111001,
010110,
110110,
110101,
110101,
110011,
010101,
111100,
010111,
011000,
010111,
111000,
110101,
110110,
110111,
110111,
010111,
011000,
111001,
111011,
110101,
010100,
110111,
110100,
110101,
011000,
110100,
011010,
110111,
111000,
010101,
010110,
010110,
110111,
110100,
010110,
110110,
110110,
011011,
110101,
110100,
110101,
110101,
110110,
111010,
010110,
110101,
111000,
010111,
110101,
110110,
010110,
110101,
110110,
110100,
110100,
010101,
010111,
011001,
010111,
010111,
110110,
011000,
011001,
111000,
111001,
011000,
110101,
010111,
110110,
111001,
010100,
111011,
110111,
011001,
011011,
010101,
010110,
010111,
111001,
010101,
010111,
110011,
010111,
010110,
110101,
110100,
011000,
110110,
110011,
011010,
111001,
010101,
011001,
010110,
111000,
010100,
110111,
110110,
010101,
110111,
110110,
010111,
110100,
010111,
111001,
110011,
010111,
110110,
010100,
110111,
010110,
010011,
011000,
010100,
110101,
110111,
111000,
111001,
110101,
111000,
010111,
111001,
010101,
111001,
111000,
010100,
010111,
111000,
110100,
111000,
011001,
110100,
110110,
010111,
010110,
110111,
010111,
111000,
110101,
110011,
010100,
111001,
110100,
111100,
011000,
010111,
010110,
110111,
011110,
110110,
010110,
111001,
110110,
010011,
011000,
110010,
110110,
010101,
110111,
010110,
011000,
110111,
010110,
110101,
110100,
010111,
010110,
011000,
010101,
110100,
110100,
011001,
010101,
110111,
111100,
011000,
010110,
010011,
110110,
110110,
010110,
110110,
011001,
111000,
110101,
011001,
110011,
010100,
011010,
110100,
010011,
010100,
010101,
010111,
110111,
010110,
010011,
110011,
011000,
110110,
010111,
010110,
110110,
010110,
010111,
010111,
011010,
010110,
110011,
110111,
010111,
111000,
010110,
111010,
110110,
010100,
110110,
110101,
110101,
010110,
110101,
110110,
111000,
010101,
110110,
010101,
010101,
110101,
111001,
010101,
110111,
011101,
110110,
010100,
011000,
110110,
110100,
110101,
011000,
010110,
010111,
110110,
010110,
111011,
111000,
110101,
010100,
110110,
010101,
011000,
110110,
111000,
110100,
010100,
010111,
010111,
110100,
010110,
010011,
010111,
010111,
110111,
010101,
110110,
010100,
110100,
110101,
010101,
010101,
011000,
110110,
111010,
111000,
011010,
010111,
010111,
110111,
110111,
010101,
010100,
010101,
110111,
110101,
110101,
111100,
110100,
111000,
110101,
110111,
110101,
110101,
110011,
110110,
110101,
110111,
110101,
011000,
010111,
010100,
010111,
110110,
010111,
111010,
111001,
110101,
010101,
110100,
110110,
010011,
110100,
010101,
010110,
110100,
110101,
110101,
010110,
110100,
010111,
110010,
110110,
010110,
010101,
011010,
110011,
011010,
011100,
010110,
010101,
010101,
010101,
111000,
111000,
111000,
011000,
110100,
010111,
010101,
110110,
111000,
110100,
110101,
111001,
110100,
011001,
011000,
010100,
110111,
110101,
110101,
010011,
110101,
010111,
110100,
110100,
010101,
110110,
010101,
110100,
010110,
110101,
010101,
010111,
010100,
010011,
010111,
010111,
011010,
010111,
010100,
110100,
111001,
010100,
111000,
110101,
010111,
010110,
110011,
110111,
011001,
110110,
010101,
010100,
110011,
110101,
010101,
110111,
011000,
010111,
110101,
111000,
010011,
110111,
111111,
010110,
010011,
110101,
110100,
010100,
110110,
110110,
110111,
110110,
011000,
010110,
010110,
110100,
011001,
011000,
110011,
111001,
110110,
010111,
110101,
110101,
011010,
110101,
010101,
010101,
010100,
110101,
110101,
110111,
011000,
110111,
011001,
011001,
010101,
111101,
010011,
111001,
110110,
011000,
010100,
110111,
011011,
010100,
111001,
011000,
111001,
010101,
010111,
110101,
010100,
110110,
110110,
010100,
110101,
011010,
110100,
110111,
010101,
010100,
110100,
010101,
011000,
110110,
010101,
111011,
110100,
110101,
011001,
110101,
010110,
010010,
011000,
110101,
010110,
011000,
110101,
010111,
110011,
010100,
110101,
011000,
010101,
010101,
111000,
010101,
011101,
010111,
010100,
010111,
111000,
010011,
010100,
010111,
110111,
110011,
111001,
011010,
011100,
110011,
011001,
110001,
110011,
010011,
110011,
110111,
010011,
011111,
111000,
010110,
010110,
110110,
110110,
110011,
110111,
010101,
110011,
010111,
110111,
110100,
111010,
010100,
110110,
011000,
110011,
010101,
110101,
010011,
010101,
011111,
111001,
110101,
010110,
110110,
111010,
110111,
010101,
110111,
111010,
111111,
110111,
110101,
010101,
110101,
010111,
010110,
010111,
110010,
010101,
110101,
110011,
110110,
111000,
110101,
110110,
111010,
110110,
110111,
110101,
110110,
010101,
110011,
011000,
011111,
010110,
010101,
010110,
010110,
010101,
110110,
110010,
010101,
110100,
110101,
010111,
110101,
010110,
111000,
010011,
111001,
010111,
010100,
110101,
110101,
110011,
110101,
111001,
110101,
111000,
010111,
010110,
110001,
110110,
111011,
011000,
011000,
110011,
010110,
110100,
010110,
110111,
010001,
111001,
110010,
110100,
010101,
010011,
010111,
011000,
010101,
110101,
110100,
010010,
110101,
010011,
010101,
010100,
011000,
010110,
110101,
010110,
110110,
110011,
010110,
010011,
110101,
111000,
010100,
010010,
010011,
111000,
011001,
110011,
110101,
110110,
011001,
110011,
010101,
110110,
110110,
110101,
010110,
010011,
111000,
110100,
110100,
110101,
010111,
010110,
010111,
110101,
011010,
110111,
010101,
110101,
110110,
010101,
011000,
110111,
011000,
110010,
010101,
110011,
110100,
110011,
010100,
010101,
010100,
010101,
110011,
110100,
110101,
010011,
011000,
011001,
110101,
010011,
110110,
110100,
110101,
011011,
011100,
010100,
011010,
110101,
110101,
010101,
111011,
010100,
110110,
010110,
110011,
010111,
110111,
110101,
110111,
110110,
110111,
110101,
011001,
110110,
010011,
110100,
110011,
110011,
010101,
010011,
111010,
110110,
111000,
010110,
011110,
010100,
010101,
110100,
111001,
110110,
110101,
011000,
011000,
110011,
110011,
110011,
011000,
111000,
010011,
010110,
110100,
110101,
110111,
110111,
111100,
110111,
110011,
110101,
110110,
110100,
110010,
110110,
110011,
011010,
110011,
110100,
110101,
010100,
010100,
110101,
010110,
110100,
111000,
011000,
011000,
010101,
010101,
010111,
010110,
010101,
010111,
110101,
010101,
010100,
110110,
111000,
010011,
010111,
110100,
010111,
010101,
011000,
110110,
010111,
010101,
111000,
010100,
011001,
010110,
010100,
110011,
111011,
110110,
110101,
010101,
010111,
011011,
110100,
011001,
110101,
010010,
110100,
110110,
110100,
010110,
011011,
010111,
010100,
011001,
110110,
110101,
111010,
011000,
110101,
010101,
111000,
110101,
011010,
010110,
110111,
011001,
110111,
010110,
011000,
010100,
010110,
111001,
110101,
011000,
011000,
010111,
010111,
010101,
010010,
010100,
010100,
011001,
110111,
110010,
010111,
110110,
010101,
110110,
010100,
111010,
011011,
110100,
110110,
011100,
110101,
010100,
111000,
010101,
010110,
111001,
010110,
110111,
010101,
010110,
010101,
010101,
010111,
010110,
110110,
110101,
010111,
110100,
110111,
110110,
110010,
010110,
110101,
011000,
110111,
010101,
010110,
111001,
110101,
011001,
011010,
110110,
010111,
110111,
011111,
110100,
011011,
011010,
011000,
110110,
110101,
110010,
010011,
111000,
111011,
110011,
110111,
011110,
110101,
010110,
110101,
010100,
110100,
110101,
110110,
011100,
010111,
110110,
010110,
010100,
110111,
110111,
110110,
110101,
110111,
010100,
111000,
010111,
010100,
010100,
010101,
110110,
110110,
010101,
110100,
010111,
110110,
110111,
010101,
011000,
011000,
011000,
011000,
010101,
011000,
011000,
010101,
110101,
010100,
010100,
011100,
110011,
110110,
110101,
010110,
010101,
110110,
110011,
111001,
010110,
110010,
111000,
011001,
010100,
110101,
110110,
010110,
011000,
010111,
011010,
010111,
011111,
010110,
010111,
110100,
010111,
111001,
010100,
011000,
111000,
110100,
111001,
110011,
110101,
010111,
011010,
010110,
010101,
110110,
010101,
110110,
111001,
010101,
110101,
010101,
110110,
110110,
010110,
010101,
010101,
110110,
010110,
110101,
010100,
011100,
010011,
110111,
111101,
111000,
111001,
010111,
110100,
010011,
110110,
010110,
110101,
111010,
010100,
011100,
010110,
110110,
010110,
111001,
010110,
110111,
011010,
010110,
010110,
010101,
111010,
110101,
011010,
110111,
010110,
110101,
010101,
010101,
010101,
010111,
010110,
111100,
110110,
010110,
010110,
010011,
011000,
011010,
111011,
110100,
111010,
110110,
110101,
011000,
010111,
110110,
010101,
011000,
111100,
110101,
010111,
010011,
011000,
110101,
110111,
110101,
111001,
110110,
010101,
011000,
111001,
110100,
011001,
010101,
010100,
010100,
011000,
010110,
110011,
011011,
110111,
010100,
110101,
110010,
011010,
010101,
110100,
010110,
010111,
010100,
010111,
011010,
110111,
011001,
011000,
111101,
110110,
110100,
010111,
010101,
110110,
110111,
110011,
010100,
111001,
011010,
010111,
110101,
111001,
111010,
010110,
110111,
110110,
011000,
111000,
010110,
110110,
111000,
111000,
110111,
110101,
011001,
110101,
010110,
111010,
010111,
110101,
110100,
110110,
010111,
111000,
111100,
111011,
111000,
010111,
110101,
011001,
010100,
110111,
110101,
111001,
010111,
111001,
010110,
110110,
110110,
011100,
011011,
010111,
110111,
011000,
011001,
010101,
011000,
111010,
010110,
010100,
010111,
011000,
111010,
110101,
110101,
111000,
110101,
011001,
111010,
110111,
110111,
110111,
011000,
110110,
111111,
010110,
010110,
111000,
110101,
111100,
110110,
110101,
110111,
011000,
110101,
010101,
111010,
111010,
111010,
011010,
110111,
111001,
110100,
111000,
011000,
010110,
111001,
111000,
010101,
010110,
110100,
110110,
011010,
110110,
111000,
110110,
010101,
110101,
011011,
110111,
010111,
010110,
010110,
110110,
010101,
111000,
111010,
110101,
111010,
110111,
011000,
110110,
010110,
010111,
110011,
110111,
111011,
010110,
111011,
010100,
011000,
111000,
110101,
010101,
110110,
110101,
010111,
011001,
010111,
110111,
110101,
010101,
110111,
010101,
110110,
110111,
110110,
110100,
011100,
110110,
111001,
110100,
010101,
110101,
110101,
010101,
110101,
010110,
110100,
110101,
110101,
010100,
011001,
010101,
010110,
011010,
110100,
111000,
011000,
110101,
110110,
110101,
110110,
110101,
110111,
110101,
110101,
010111,
110101,
111010,
110110,
010101,
111000,
011000,
111001,
010110,
111000,
010111,
011001,
110110,
110111,
011101,
110110,
010110,
011010,
011101,
011011,
011010,
110110,
110101,
010110,
110110,
010100,
111000,
011001,
010101,
010110,
010100,
110101,
111001,
011001,
011000,
010110,
110101,
010101,
110110,
111010,
010101,
110101,
010101,
010111,
010111,
010111,
110110,
010110,
010111,
010110,
110110,
111000,
010100,
110101,
110101,
011010,
010101,
110101,
011010,
011000,
011000,
010111,
011000,
010110,
010101,
111001,
010100,
110101,
010110,
010111,
111001,
010101,
110100,
110101,
110110,
111010,
110101,
011001,
010100,
010101,
010110,
010101,
010110,
110110,
010100,
110110,
010101,
110101,
010110,
010111,
111001,
110110,
110011,
010101,
010101,
010101,
010100,
110110,
010100,
011000,
010111,
010100,
010111,
111001,
010101,
110111,
010111,
110111,
010101,
010110,
110111,
011011,
010111,
010101,
010101,
111001,
110101,
110110,
111000,
110111,
011001,
010101,
110101,
110011,
110111,
111000,
111001,
010101,
010111,
110100,
110101,
110111,
010111,
110111,
010110,
010111,
110111,
010101,
011001,
010110,
111011,
010100,
110111,
011001,
010111,
011001,
010101,
010101,
011000,
010101,
110101,
111000,
010110,
010101,
010101,
010110,
110100,
110110,
010111,
010111,
110111,
110100,
110111,
010111,
010101,
111010,
011000,
010100,
111001,
111011,
110100,
010110,
111000,
010101,
111000,
110101,
010011,
010101,
110100,
010101,
011100,
110111,
111101,
111000,
010010,
010110,
111000,
011001,
110101,
110111,
110110,
011010,
010100,
011000,
110011,
110111,
010110,
110101,
110011,
110100,
111010,
110101,
010110,
110111,
011101,
110100,
011001,
111000,
010110,
010110,
010110,
110101,
011111,
010111,
110100,
110101,
011011,
110101,
110111,
011001,
110011,
110101,
011011,
111000,
110110,
010011,
011010,
010110,
111000,
110100,
110101,
011011,
010111,
010110,
111010,
010110,
110101,
110111,
110011,
110110,
011000,
110101,
110111,
010101,
011101,
010011,
110100,
010110,
110110,
010101,
110101,
110111,
011001,
110110,
110110,
010111,
010100,
010101,
110100,
011001,
110110,
010011,
111000,
010100,
010111,
110101,
010100,
110100,
011000,
011010,
010101,
110101,
010110,
011000,
110101,
010101,
010100,
010111,
010101,
110110,
011110,
111001,
010011,
011011,
111001,
110011,
010110,
110100,
011001,
010111,
010101,
011001,
111000,
110011,
110101,
110011,
110111,
110110,
010101,
110111,
110111,
110101,
111010,
110110,
110110,
010110,
111000,
110100,
110100,
010101,
010100,
110110,
010100,
010111,
110101,
110100,
110111,
110101,
110101,
010110,
010111,
010011,
010011,
110100,
110100,
010101,
110111,
111011,
111100,
110110,
111001,
011011,
111001,
110011,
010100,
110011,
110101,
110101,
011001,
110100,
110110,
111000,
011001,
110011,
111001,
110101,
010110,
011101,
111011,
110011,
010110,
110110,
110101,
110100,
010100,
110110,
111001,
011001,
011000,
010101,
010101,
011101,
011001,
010011,
010010,
011000,
110100,
010011,
111000,
010111,
010011,
010110,
010101,
110111,
010111,
110100,
011000,
110101,
010100,
110011,
110110,
010101,
110100,
010101,
010101,
111000,
010101,
010011,
010101,
010101,
110010,
010101,
010100,
010110,
010101,
010101,
110111,
011001,
010110,
110100,
110111,
110101,
110111,
010110,
110100,
110111,
110110,
010110,
010100,
010011,
011001,
010101,
010100,
111100,
110101,
110100,
010110,
110111,
010111,
111011,
010110,
010101,
010101,
010110,
011000,
010111,
110110,
110101,
010100,
010111,
111100,
010111,
111000,
110110,
111000,
010100,
111010,
111000,
111001,
111000,
011010,
110011,
010100,
110100,
011011,
011011,
011011,
111010,
011101,
111000,
011010,
110101,
110100,
111000,
110100,
011010,
111000,
010100,
110111,
111000,
110111,
111011,
110111,
011001,
010100,
110101,
010111,
110111,
011001,
111001,
110101,
111000,
111000,
010110,
010011,
110110,
110110,
110110,
110100,
010100,
010110,
010110,
111010,
010011,
010101,
010110,
010111,
110101,
010110,
111100,
111100,
010101,
110101,
011001,
011010,
110101,
111001,
110101,
110111,
010100,
010110,
011000,
011001,
011001,
110101,
010101,
111000,
110110,
011011,
010100,
110110,
110110,
111001,
011100,
110101,
111000,
110101,
110101,
011001,
011011,
010100,
010100,
110110,
010101,
110100,
010101,
010101,
110110,
010100,
010101,
111000,
011000,
011000,
110111,
011001,
011010,
010110,
010111,
010110,
010011,
010110,
110111,
111000,
110100,
110101,
110100,
111001,
010100,
010110,
010100,
110100,
010110,
110101,
010101,
110110,
010011,
010101,
110011,
111000,
111001,
111110,
110110,
010111,
010101,
110101,
010111,
010100,
110101,
011000,
010110,
010011,
110101,
011100,
110101,
010110,
010100,
111001,
010101,
110101,
010101,
110100,
010110,
010100,
110100,
110100,
010100,
111000,
110011,
010101,
011000,
011000,
011000,
010010,
110011,
110101,
110100,
110101,
010101,
010100,
011000,
110110,
010010,
111010,
111001,
110100,
010010,
011000,
011001,
111001,
110100,
111001,
111000,
010100,
111001,
110100,
010101,
110011,
010100,
110111,
010101,
011000,
110111,
110100,
010110,
110110,
110101,
110101,
111000,
110100,
010111,
011000,
011101,
111100,
010101,
011000,
010100,
110110,
110110,
110110,
010101,
010110,
110111,
110101,
010101,
010101,
110100,
110111,
010110,
110011,
010011,
010011,
110111,
110110,
010101,
110100,
111011,
110110,
110100,
110111,
110101,
111000,
110100,
110111,
011001,
110100,
110101,
110101,
110011,
111000,
110101,
010100,
010100,
010100,
110011,
110100,
111101,
110100,
011000,
010100,
110101,
110111,
011000,
110110,
110011,
010101,
010011,
010111,
010100,
110101,
011010,
010110,
010011,
010011,
010110,
111111,
010110,
011001,
110110,
110101,
011001,
110100,
010100,
011000,
011001,
110100,
010110,
010111,
111010,
110110,
110101,
011010,
011001,
010111,
111001,
110100,
010101,
110110,
110011,
110101,
010101,
110100,
110111,
110111,
010111,
111000,
010101,
010110,
111000,
111000,
010101,
010101,
010101,
110111,
010111,
010111,
110101,
111010,
110111,
010101,
110110,
110110,
110110,
011000,
110011,
110110,
011010,
010100,
110100,
011011,
111000,
010101,
011001,
110100,
110110,
110100,
110100,
011011,
010111,
011011,
011000,
010101,
011000,
111001,
010110,
110110,
110100,
111010,
010110,
110111,
111001,
010101,
010101,
010101,
110100,
010101,
110111,
110101,
110100,
110101,
110110,
110100,
111001,
011000,
010100,
110110,
110111,
110111,
111001,
010100,
110110,
010110,
010110,
010101,
010100,
110101,
110100,
110101,
011010,
010111,
110101,
110110,
010110,
110111,
110110,
011110,
010100,
111000,
011000,
111000,
111110,
111000,
010110,
010100,
110011,
110011,
010111,
010101,
010101,
010101,
010111,
110100,
011000,
110100,
111101,
110100,
111011,
010101,
010111,
010110,
010100,
110100,
110111,
011001,
010110,
111000,
110110,
010110,
010100,
010100,
010101,
010101,
010110,
010110,
111010,
111000,
011000,
010011,
010101,
111010,
010101,
010111,
011110,
110011,
010011,
110100,
110101,
111000,
110101,
110111,
010110,
010111,
010100,
010110,
010100,
111000,
010100,
111001,
110100,
110111,
110100,
010111,
111000,
010101,
111011,
110101,
010100,
010100,
110111,
010011,
010100,
010010,
010110,
011000,
010110,
110100,
111000,
111000,
110100,
110101,
010110,
011010,
010101,
110100,
111000,
111100,
110110,
010111,
011001,
110011,
110110,
010111,
010101,
110101,
010111,
010100,
010110,
111000,
110100,
111011,
111010,
110101,
010101,
111010,
110100,
110100,
110111,
010101,
011011,
010110,
010111,
010011,
011000,
110111,
110101,
010011,
010101,
011011,
110110,
110101,
010100,
110101,
010101,
110010,
010110,
010110,
010111,
111000,
010111,
110010,
010111,
110011,
010101,
110110,
010110,
110101,
010111,
010101,
110100,
110110,
010110,
010111,
111000,
110111,
010100,
111000,
110110,
010110,
011010,
110110,
110110,
110110,
110010,
110110,
110101,
010101,
110111,
010111,
110010,
111001,
010110,
010111,
110100,
010101,
010101,
010110,
010101,
010110,
111001,
010100,
110111,
010010,
110111,
010101,
110111,
111011,
010101,
010110,
110100,
010110,
110101,
111001,
110111,
110100,
110101,
111001,
010100,
110111,
111001,
110011,
010110,
010110,
010100,
011001,
010101,
110011,
110110,
111000,
011000,
110110,
010011,
110101,
010111,
111000,
110100,
110101,
011001,
011100,
110101,
110101,
110110,
010110,
110101,
011010,
110111,
110110,
010101,
111001,
111000,
110100,
111000,
110011,
110110,
110011,
010111,
011000,
111001,
111011,
110111,
010101,
010101,
010101,
110101,
111000,
110111,
010110,
010101,
110100,
011100,
110111,
110100,
010110,
111100,
110110,
010011,
010101,
010100,
011011,
110111,
110110,
110101,
010101,
110011,
110111,
110101,
110110,
111010,
010111,
110011,
010110,
111100,
011000,
010100,
110110,
010111,
111001,
011000,
010111,
011000,
111010,
011000,
011000,
110100,
010111,
010111,
110111,
010111,
010110,
010100,
010101,
010111,
111000,
010111,
010100,
010111,
111100,
110111,
110101,
010110,
110110,
011001,
010111,
110110,
110110,
110101,
110100,
110101,
010110,
110111,
110100,
110010,
110110,
010100,
010110,
011010,
110101,
110101,
110101,
011000,
010111,
010111,
110110,
010011,
110111,
110011,
110110,
011000,
110101,
111000,
010110,
011000,
111000,
110110,
011100,
111001,
010110,
010110,
010110,
110111,
010111,
010111,
011100,
010101,
010101,
110111,
110111,
110110,
011001,
111000,
110111,
110111,
011000,
110111,
010100,
110100,
010110,
011000,
010110,
011000,
110101,
011010,
111100,
011001,
010111,
110011,
110100,
011000,
110111,
111010,
111000,
110101,
010110,
010100,
010101,
010110,
010101,
011100,
011000,
011111,
010101,
110010,
110110,
011100,
010100,
010100,
110101,
011011,
010110,
111000,
011001,
011000,
010110,
010101,
010110,
111000,
010101,
011000,
011001,
111001,
110101,
011001,
010111,
011000,
010111,
011000,
011000,
110100,
110111,
111001,
110111,
010101,
011001,
110100,
110111,
010110,
011000,
010101,
111010,
010101,
010110,
011000,
010101,
010101,
010111,
010101,
110111,
111001,
011010,
110110,
110101,
011000,
111010,
110111,
111010,
011010,
110101,
010110,
110111,
110100,
011000,
010110,
111111,
110101,
111000,
110111,
110101,
110111,
010110,
010100,
010110,
110111,
011001,
011001,
110101,
111101,
010100,
010111,
010111,
010100,
110111,
110100,
110111,
010110,
110101,
010111,
010100,
010111,
011011,
011001,
011011,
010110,
110100,
110101,
010100,
011010,
011000,
111000,
011011,
010110,
110111,
110010,
010111,
110101,
110101,
110110,
011000,
010101,
110101,
110111,
110110,
010111,
010100,
110111,
010101,
110111,
110110,
010110,
111000,
011000,
110101,
110110,
010101,
110110,
010111,
010110,
010101,
011000,
111000,
110111,
011000,
010111,
110110,
110110,
010110,
011000,
011011,
111000,
110111,
111011,
110101,
010101,
110110,
010100,
111101,
111000,
011000,
110100,
111000,
111000,
010111,
110101,
110110,
010110,
110101,
110100,
110101,
110011,
010111,
110111,
010110,
110110,
010101,
010011,
110101,
010100,
010100,
010101,
010010,
011011,
110111,
011110,
110100,
111011,
010111,
010111,
110100,
011011,
010110,
010100,
010100,
010111,
010101,
010111,
010011,
110100,
010111,
010110,
111010,
010100,
110110,
111000,
010101,
010110,
110101,
010111,
010111,
010111,
110111,
110101,
111101,
011100,
110110,
010100,
110110,
110111,
010100,
010101,
110101,
110111,
110101,
010111,
110101,
110110,
110101,
110110,
110101,
110101,
110110,
010101,
110101,
111000,
111010,
110110,
111000,
010110,
110110,
010100,
110101,
110110,
010011,
010110,
010110,
111001,
110100,
011000,
011000,
010110,
110110,
111100,
110101,
010110,
010101,
110100,
011000,
110110,
110111,
010100,
110110,
011100,
110100,
010101,
110111,
110110,
110101,
110111,
011000,
010111,
010101,
110101,
010100,
110111,
110101,
010101,
010111,
111101,
110110,
011001,
110110,
010110,
110101,
010101,
011001,
010111,
111000,
110101,
110101,
010111,
110111,
010111,
011001,
110110,
011000,
110100,
111101,
110110,
010110,
011010,
110111,
111010,
111000,
010110,
111000,
110101,
010101,
110100,
110100,
110110,
111001,
110101,
110101,
110100,
110101,
111001,
010110,
010111,
010100,
111001,
110111,
110101,
010111,
110111,
110110,
111000,
010111,
011000,
110100,
010110,
010101,
110101,
110110,
011010,
110101,
110110,
011001,
111000,
110110,
110100,
110110,
011000,
011001,
010101,
011111,
010011,
110101,
010111,
110101,
110111,
110110,
011001,
110111,
011100,
110100,
110100,
110111,
110111,
010100,
111000,
110110,
010100,
110100,
010101,
110100,
010101,
010100,
010100,
011000,
110111,
010111,
110110,
010100,
110111,
110111,
010011,
010101,
110110,
010101,
010110,
011001,
010110,
011001,
010110,
010100,
010110,
110101,
111010,
010110,
111111,
110101,
110101,
110100,
011000,
011000,
011000,
110101,
010100,
010110,
110110,
110110,
010111,
010111,
111000,
111000,
010110,
010100,
111000,
010111,
110100,
011011,
110110,
010101,
011010,
110100,
111111,
010100,
110101,
110011,
010011,
110101,
110110,
010111,
110111,
010110,
010110,
010111,
010101,
011111,
010101,
110110,
110110,
010100,
011000,
110111,
110100,
010111,
011001,
010110,
011000,
110101,
011001,
110110,
010101,
110101,
110101,
110100,
010110,
110111,
011000,
010110,
110110,
010011,
010100,
010111,
110100,
111000,
011000,
010111,
010111,
110101,
010111,
010110,
010100,
010111,
110100,
010011,
110110,
110111,
010100,
011100,
110110,
110101,
010110,
110101,
010011,
010110,
111100,
110011,
110111,
010100,
110110,
110011,
110011,
010101,
010011,
110011,
110100,
010100,
010101,
011000,
110101,
010110,
010111,
010110,
010111,
010101,
010100,
110011,
110100,
110101,
110100,
010100,
011001,
110111,
110111,
111000,
110110,
011001,
110101,
110100,
110100,
010011,
110010,
011000,
011001,
111000,
110111,
111000,
010110,
111001,
110100,
110111,
010111,
010100,
110101,
010101,
010100,
010100,
010011,
010110,
011000,
010110,
010110,
111000,
110101,
011101,
011010,
110110,
110101,
111001,
110010,
110110,
110110,
011000,
110100,
010101,
110110,
110110,
010110,
011001,
111001,
010100,
110110,
010111,
010100,
010110,
110011,
111101,
010111,
111011,
010111,
010100,
010100,
111000,
011000,
011001,
010111,
110101,
011001,
011011,
110110,
110100,
110111,
110101,
011011,
111001,
110111,
110100,
011100,
010101,
111010,
110111,
010110,
011101,
110110,
110111,
110101,
110110,
010100,
011010,
110111,
111010,
010111,
011100,
010110,
011010,
111000,
110111,
010100,
011000,
010110,
010111,
110111,
111011,
110011,
010110,
010100,
110101,
110100,
010111,
011000,
010111,
011000,
010100,
110111,
010111,
010110,
110100,
010101,
010110,
010100,
110110,
010101,
110110,
110110,
010100,
110111,
011000,
111000,
110110,
110110,
010110,
010111,
010110,
110100,
010110,
011010,
010101,
110111,
011001,
110101,
110111,
110100,
110111,
110100,
010110,
110111,
110101,
110101,
011001,
010111,
010111,
111000,
110101,
110100,
110100,
010100,
010110,
110110,
011001,
011001,
010101,
010111,
110111,
111000,
111000,
010111,
010101,
111010,
010101,
010110,
110111,
010100,
110110,
010101,
011000,
110100,
110100,
011010,
010101,
010100,
110101,
110101,
011010,
110101,
010111,
010110,
011111,
110101,
110101,
111010,
011011,
111000,
010101,
010101,
010100,
111011,
110111,
110100,
010100,
110110,
011010,
010110,
010011,
111100,
110101,
010101,
110100,
110101,
110110,
010101,
010111,
011000,
011000,
011010,
111001,
110011,
010101,
010101,
011010,
010101,
110011,
111000,
110110,
010011,
110101,
110110,
110101,
011001,
011001,
110100,
111011,
010100,
110110,
110100,
111000,
111001,
010110,
010011,
010110,
110101,
111000,
010101,
110111,
010110,
110101,
010110,
011000,
011010,
010111,
110110,
110101,
011001,
111010,
110110,
110101,
010110,
111000,
110101,
110100,
011011,
010011,
111100,
110101,
011100,
111100,
011000,
110101,
110100,
110101,
010101,
110110,
010110,
110110,
010101,
010100,
011011,
010100,
011011,
010111,
110100,
010100,
010011,
110100,
110101,
110100,
011000,
010110,
110101,
111011,
010111,
110111,
110110,
010111,
010110,
011000,
010111,
010101,
110101,
010100,
011001,
011000,
110111,
110011,
110111,
010111,
010101,
010110,
111100,
110100,
010111,
111000,
110111,
011001,
111000,
110111,
110101,
111010,
111001,
110110,
111011,
010100,
111000,
110100,
010111,
010100,
010011,
111010,
110101,
010111,
110111,
011001,
110110,
010110,
111001,
110101,
110111,
111000,
010100,
010111,
011100,
110110,
010100,
111000,
110111,
010110,
010110,
110111,
110100,
010101,
110100,
110111,
010111,
010101,
110100,
111001,
111110,
010100,
010111,
111001,
110111,
010101,
110110,
011001,
110101,
011001,
110111,
011000,
010111,
111011,
110111,
110101,
010100,
010101,
110110,
011010,
011000,
110100,
010101,
110101,
110011,
011011,
110110,
110101,
110110,
010111,
011000,
110101,
110110,
110110,
110011,
111001,
111000,
111001,
010110,
010111,
110100,
110101,
110100,
010110,
110100,
010110,
011000,
010100,
010101,
110100,
010110,
010110,
010101,
010101,
110111,
011000,
110101,
010011,
111010,
110100,
010110,
110101,
010101,
110110,
010100,
010100,
011000,
011001,
110110,
110011,
110101,
110110,
010100,
010110,
010111,
110101,
110101,
111000,
110110,
011011,
110111,
010110,
110101,
111010,
010100,
011001,
010110,
010110,
110011,
010110,
110011,
010101,
110100,
010110,
010100,
110111,
110110,
111001,
010111,
010101,
110101,
110101,
110101,
110101,
011000,
110101,
110011,
010110,
110101,
010110,
011000,
110110,
011000,
011000,
010111,
010101,
110110,
110110,
010110,
010100,
010100,
110101,
010101,
110100,
110100,
010110,
010111,
010110,
011000,
010100,
111001,
110111,
110011,
011000,
110011,
111011,
110110,
110111,
110100,
110110,
011011,
011011,
110110,
010111,
110011,
111010,
010110,
110101,
010100,
110110,
111000,
110100,
010011,
011011,
010101,
110100,
010011,
010010,
111100,
110011,
010111,
011101,
010111,
110111,
010101,
010110,
010110,
011010,
110110,
010100,
010111,
011101,
110111,
110111,
110110,
110100,
010111,
010101,
010100,
011001,
010110,
110110,
110110,
111001,
110110,
011000,
110111,
010101,
110100,
011001,
110011,
110011,
010111,
011010,
010110,
011000,
110101,
011010,
110101,
010101,
110111,
111000,
111000,
111010,
010110,
110111,
110111,
011000,
010101,
110100,
111000,
010110,
011001,
111010,
010101,
011110,
010111,
111000,
110101,
111000,
110111,
111001,
010101,
111010,
011000,
110101,
011001,
110110,
110111,
011000,
110101,
011110,
110110,
010111,
010100,
111001,
011000,
111011,
111000,
110101,
010110,
111010,
010110,
110111,
010101,
111110,
010110,
110100,
010100,
010101,
010101,
011000,
010110,
110111,
111011,
010110,
110100,
010111,
110110,
110011,
011101,
111011,
010101,
011000,
110111,
010101,
111000,
010100,
010110,
011000,
010110,
110110,
110111,
110110,
110111,
110110,
010110,
011011,
110011,
011000,
110110,
010100,
111100,
110110,
010111,
010111,
110011,
011001,
110101,
110110,
110101,
110100,
011111,
010101,
011001,
011001,
011001,
110101,
010010,
010101,
110010,
110110,
110110,
011000,
111000,
110101,
011010,
010111,
111000,
010011,
011010,
111001,
110100,
110110,
110111,
010100,
010111,
111000,
011110,
010101,
010101,
110110,
010110,
010111,
010111,
110110,
110011,
110111,
110111,
110011,
110111,
010111,
110110,
110101,
110101,
110110,
111010,
110101,
010100,
011010,
110010,
110110,
111000,
111000,
011000,
011000,
011101,
110110,
010010,
010101,
110110,
110110,
010101,
111000,
110111,
110101,
010010,
011001,
110110,
010110,
010111,
011111,
011001,
110111,
111010,
010100,
110101,
010111,
010101,
010110,
010110,
110100,
011000,
110110,
010110,
010110,
010111,
110101,
011001,
111001,
111000,
110111,
