memory_initialization_radix=2;
memory_initialization_vector=
11111111101000011100,
00000101100101111101,
11111101000001001010,
00000010111111110001,
11111100011010101111,
00000100111111001111,
00000000001010001000,
00000000000010110110,
00000010111011011111,
11111100010001101110,
00000000100100110111,
11111101011111011010,
00000100000110011110,
11111111101010100010,
00000001100111111001,
11111111100101010111,
11111100010000101111,
00000101101011011010,
00000011110110110011,
00000100101010111001,
00000010111010111101,
11111111010000011010,
00000101010011010110,
00000000101010001101,
00000111000001011001,
00000010111111000110,
00000001010111000001,
00000010100101101100,
00000101000000110111,
00000011010110010010,
11111111111110000010,
00001000011000101010,
00000011010110011110,
11111111101111001010,
00000101001100110001,
00000010110010011011,
00000000110011001110,
11111011111110101000,
00001010100111101100,
00000000001011111100,
11111111110111000001,
00000100011000011000,
00000101111000010100,
00000001011101100110,
00000011111010100000,
11111110000011100011,
11111111101000001001,
11111111110001000110,
11111101111001110110,
11111100010011111010,
11111111111111011010,
11111101010101100101,
00000011111000001110,
00000011000111101110,
11111100011101000100,
00000010011001100011,
11111111101011010111,
00000001111101010001,
00000011100111100001,
00000110101110011111,
00000100110011110111,
00000000101101010111,
00000001011010110010,
00000001001100010100,
00000110111101011011,
11111101001111101011,
00000000011101101011,
00000100101011110110,
11111011000110001111,
00000010001010001000,
11111110011100011001,
00000110111001010101,
00000000001100110111,
11111111101010101010,
11111110110010110000,
00000110011101100110,
11111111110001000111,
11111010100011101111,
00000000110011010111,
00000000110101001000,
00000110010000110001,
00000111101100101001,
11111111111000011001,
11111111100111101001,
11111111100100111011,
00000010010001000010,
11111101100000100010,
00000000000111100000,
00000000110101110110,
11111111101111110110,
11111111101001100111,
11111110100100100110,
00000000101000011111,
11111111100010010001,
00000010111000111110,
00000010001000100110,
11111111101110001010,
00000011011000011100,
00000000011001000011,
00000010011111101110;