memory_initialization_radix=2;
memory_initialization_vector=
00000010010010000111,
00000001110111001100,
00000010100111001011,
00000100011000110101,
11111101100001000101,
11111101100101000000,
00000100010000011100,
00000010010101110001,
00000010110011000010,
00000010011101010110,
11111110100001100100,
00000010101011101010,
00000100101001000111,
00000010100110111010,
00000111010000000110,
11111110100101111111,
11111111000101101100,
00000000111100110011,
11111110111000111010,
00000011000101100010,
00000000010011100111,
11111111010110010000,
00000001111010111011,
00000010000001011001,
11111111000000011011,
11111111110011111000,
00000001000000100010,
00000011011110100100,
00000001110111100100,
00000010010011111101,
00000000100011001110,
11111111000000101100,
00000010100100111011,
11111111001001100110,
11111110110101001011,
00000010000100011001,
00000001000010100100,
00000101001000110000,
11111101000110000110,
00000101011010110100,
00000001111110110110,
11111110000000011010,
00000100001100100110,
00000001010010001110,
00000011100000001011,
00000010011000100001,
11111100001010100000,
00000001101101010011,
11111110111101011100,
00000010010100011011;