memory_initialization_radix=2;
memory_initialization_vector=
110001,
110010,
010001,
010010,
010010,
010010,
010100,
111001,
010100,
110010,
110010,
110001,
110001,
110010,
110011,
110010,
110010,
110111,
110001,
110010,
010011,
010011,
011000,
110011,
110011,
110111,
110010,
010010,
110001,
110001,
010011,
010010,
010011,
010011,
110001,
010100,
110110,
010011,
010001,
010011,
010001,
010010,
010011,
010111,
110010,
110100,
010100,
010010,
010100,
010010,
010001,
010010,
010001,
010011,
010011,
010010,
110001,
110001,
110001,
110001,
010001,
010001,
010001,
010100,
110011,
110011,
110010,
010011,
110100,
010010,
110010,
110010,
010001,
010010,
100000,
100000,
110011,
110011,
100000,
110001,
110010,
010010,
110010,
110010,
100000,
100000,
110010,
010011,
100000,
110001,
000000,
010010,
110010,
010010,
000001,
010010,
010100,
010010,
110010,
010001;
