memory_initialization_radix=2;
memory_initialization_vector=
111000,
111000,
110011,
010011,
010011,
110011,
110101,
111000,
010011,
010100,
010011,
110011,
110100,
010101,
110101,
010101,
110111,
010110,
010110,
010111,
011010,
010110,
110100,
111000,
110100,
110101,
010011,
010101,
110101,
111111,
110111,
110110,
110101,
010110,
010101,
110111,
111011,
011000,
110100,
110110,
010100,
110010,
010100,
110100,
111001,
010101,
110110,
110100,
011000,
110101,
110110,
011000,
110010,
010010,
110111,
010010,
010110,
111000,
010110,
010110,
010011,
110010,
110100,
011000,
110011,
010010,
010101,
010110,
010101,
111001,
010100,
011001,
010101,
110111,
111000,
110111,
010010,
011000,
010101,
010111,
011001,
110111,
010111,
110100,
110111,
011000,
110011,
110100,
011000,
110110,
010010,
110010,
010011,
110100,
010110,
010110,
011011,
010111,
110011,
110110;
