memory_initialization_radix=2;
memory_initialization_vector=
110010,
010101,
110001,
110001,
010001,
110001,
010011,
110011,
010010,
110001,
110001,
110001,
010010,
010011,
110011,
010011,
010101,
010011,
010101,
010101,
110100,
010010,
110011,
110001,
010010,
110011,
110001,
110001,
010011,
110110,
110110,
010011,
010011,
110010,
110010,
010010,
010100,
110110,
010010,
010011,
110001,
000000,
110010,
010010,
010110,
010010,
110011,
110011,
110011,
110011,
110010,
110110,
110001,
010001,
010010,
010001,
010100,
010011,
010100,
010100,
100000,
110001,
110011,
110011,
110001,
100000,
110010,
110010,
110010,
110010,
010010,
110011,
010010,
010010,
010101,
010100,
010001,
100000,
010100,
010110,
110101,
010010,
010010,
110010,
110100,
110100,
110010,
110011,
110101,
110100,
100000,
000000,
010001,
110010,
100001,
010100,
010111,
010110,
110010,
010001;
