memory_initialization_radix=2;
memory_initialization_vector=
010100,
110011,
010011,
110100,
110101,
010101,
010110,
011100,
110111,
110011,
011000,
010101,
111001,
010100,
010101,
010101,
110011,
011011,
010011,
110011,
010110,
010110,
111100,
011001,
110101,
111010,
110100,
110110,
110010,
110010,
010101,
010101,
010101,
111000,
010011,
010101,
011000,
010110,
110011,
010110,
110011,
110100,
110101,
111001,
011011,
110110,
111101,
110100,
010101,
010100,
010011,
010100,
110110,
110111,
010110,
010011,
010100,
110011,
110011,
110011,
010011,
010011,
010111,
011011,
110101,
110100,
110111,
010101,
110110,
010101,
110100,
110111,
110101,
010101,
110010,
110100,
110100,
110101,
010111,
110010,
110011,
110100,
110100,
010101,
010101,
010100,
110011,
111111,
010010,
110010,
110011,
110100,
010101,
110111,
010001,
010100,
010101,
010100,
010110,
010110;
